#version: 0.2
Ġ t
Ġ a
i n
h e
r e
o n
Ġt he
Ġ s
a t
Ġ c
e r
Ġ o
e n
e s
Ġ Ġ
n d
i s
in g
i t
Ġ w
a l
o r
o u
Ġ p
Ġ f
Ġ m
a n
Ġa nd
Ġt o
Ġ b
i on
Ġ in
Ġ d
Ġo f
a r
č Ċ
l e
e d
i c
en t
c t
Ġ re
r o
Ġ e
Ġt h
čĊ č
s t
v e
Ġ n
Ġ y
Ġ l
e t
Ġ h
a s
o m
Ġy ou
Ġ is
ĠĠ ĠĠ
l y
i m
i d
at ion
c e
l l
Ġ g
Ġs t
s e
Ġ u
o w
u t
o t
Ġb e
Ġc on
Ġth at
i g
Ġf or
Ġ I
c h
r a
i f
u r
Ġ T
Ġo r
v er
Ġ it
Ġ on
l d
it h
Ġp ro
at e
u l
Ġa s
u m
Ġc an
Ġw ith
Ġe x
a y
a m
k e
i r
Ġa n
o re
Ġ v
er s
Ġw e
he r
i ve
is t
i l
g e
es s
q u
a b
ĠĠ Ġ
o l
a d
Ġw h
Ġa re
Ġs u
Ġc om
Ġd e
e ct
Ġyou r
it y
Ġ 1
o d
re s
m ent
t h
es t
p p
Ġ =
Ġin t
r i
ig h
u n
Ġ A
Ġ (
Ġ he
ou ld
Ġn e
a in
Ġc h
p le
i al
i es
i v
Ġs e
ĠT he
u s
Ġ "
ct ion
p l
Ġa l
a c
an t
Ċ T
e re
Ġh a
igh t
Ġ r
n t
Ġ en
i ll
Ġm e
Ġ S
or t
p t
p e
o s
Ġs h
Ġ 2
Ġ le
Ġm ore
Ġth is
Ġu s
o c
Ġm a
Ġ im
a ct
` `
u e
h is
Ġw or
ro m
ar t
ation s
Ġ C
čĊ ĠĠĠĠ
u d
Ġa t
u re
e m
en ce
al l
Ġb y
u st
i z
ion s
Ġn ot
id e
* *
k ing
a nd
p er
Ċ I
a ge
ou t
in e
ic al
t er
Ġre s
Ġf rom
a ch
f f
čĊ ĠĠĠ
en d
Ġ W
Ġa b
e l
Ġha ve
a re
Ġa d
Ġw he
ab le
an ce
om e
in d
ĠT his
Ġa r
Ġ P
Ġthe ir
Ġf e
Ġd at
or m
ic h
t her
in t
Ġ H
ul t
Ġc l
a g
Ġcon t
0 0
s o
Ġ `
Ġ B
i e
Ġin c
i p
Ġt e
Ġd o
Ġp l
um b
ou r
Ġ if
o p
Ġst r
o g
ar d
Ġa pp
Ġal so
a st
d u
Ġv al
Ġwh ich
Ġt r
im e
un ction
as e
Ġ -
Ġ M
Ġim p
i b
Ġ 3
Ġdat a
Ġc o
Ġu n
r ou
i ke
Ġcom p
ig n
Ġ F
f orm
Ġf unction
i le
Ġ +
Ġw ill
Ġ j
ĊT he
Ġc re
c c
res s
g h
c es
ur n
Ġn umb
ac k
x t
an g
Ġa ll
Ġcon s
Ġb ut
Ċ A
Ġo ut
Ġe v
if ic
Ġhe l
Ġ E
Ġ k
e p
r it
ent s
Ġl ike
ar y
Ċ W
Ġhel p
ar i
Ġb et
Ġab out
it ion
as s
Ġt a
an s
h at
Ġs c
at ive
ve l
Ġm y
i re
Ġre l
Ġe m
Ġsu ch
Ġp er
Ġthe y
Ġre t
Ġ R
Ġ qu
w e
Ġo ther
čĊĠĠĠĠ ĠĠĠ
k s
ic e
u al
Ġin d
`` `
at ing
at ed
f ere
Ċ ```
Ġp o
a v
id er
ou s
Ġh as
Ġp re
Ġs pe
Ċ H
Ġd is
am e
o o
ou nd
Ġ ro
on e
or s
Ġ D
Ġg o
ĠĠĠĠ ĠĠĠĠ
y th
Ġc ould
Ġm an
Ġw ould
Ġpro v
Ġw as
Ġs ome
ent ial
Ġ $
Ġne ed
Ġf o
nd er
on g
ou nt
is e
Ġret urn
Ġma ke
Ġo ver
or y
Ġs p
il ity
Ġd if
Ġu p
j ect
Ġt ime
e ar
Ġthe m
a ce
we en
Ġv ari
Ġbet ween
Ġne w
Ġon e
Ġu se
u es
Ġcom m
Ġint o
p h
a il
Ġm o
Ġu nder
n ow
Ġo ur
Ġad d
Ġe ff
Ġnumb er
Y ou
p ut
it ies
at es
l ud
Ġt w
ic t
Ġ L
y s
Ġp r
Ġ ke
Ġit s
ri b
er v
Ġt ra
ay s
Ġ O
Ġp os
Ġcon c
l f
Ġthe se
Ġspe c
Ġe ach
Ġex p
Ġ 5
yth on
al ly
am ple
ment s
l es
c ess
Ġ **
iz e
Ġs o
e f
en s
Ġex per
Ġ N
Ġdif fere
Ġwhe re
Ġl ist
er m
Ġch ar
Ġm ay
Ġan y
Ġ '
Ġp art
on d
Ġd es
Ġas s
h ip
Ġh ow
Ġf ind
Ċ -
Ġtw o
Ġ x
Ġcons ider
an ge
Ġ 4
f ul
Ġs et
ing s
Ġa cc
Ġthe re
Ġus ing
Ġwor k
g et
ĠI t
ir st
ver s
Ġwh o
st r
e g
on s
Ġsh ould
Ġwh at
Ġfor m
Ġwhe n
ra m
Ġs ent
Ġp ers
a p
Ġm od
n s
Ġde c
Ġinc lud
Ġ G
Ġth an
Ġk now
et h
i ent
â Ģ
Ġg et
Ġin v
Ġres p
Ġm at
Ġd ist
r y
Ġ [
if y
Ġo b
Ġpro b
Ġre c
Ġapp ro
i ence
Ċ *
Ġf l
Ġpo int
ar k
c k
or d
Ġwe ll
Ġp h
le d
Ġd et
Ġs y
pp ort
Ġex pl
ll ow
Ġs ign
ĊI n
Ġchar act
st and
ro w
Ġ her
o se
Ġst ud
n e
ic s
it e
o y
** :
Ġcre ate
it s
) ,
Ġval ue
re e
ĠI n
Ġ U
Ġof f
o b
g g
ib le
Ġan al
Ġc or
a k
) .
rou gh
Ġe qu
er t
ul ar
re at
Ġa m
Ġin form
Ġ ra
Ġc al
) :
Ġre m
Ġpro du
Ġ J
Ċ S
ot h
rib ut
Ġres ult
Ġcom ple
Ġm ight
Ġint er
. .
t en
e ver
Ġp e
Ġs im
ĠI f
Ġg en
u b
t ing
a u
Ġre g
Ġeff ect
Ġfo llow
. "
ab ility
i ld
al s
Ġe le
Ġunder stand
ĊT o
n ing
id ent
Ġus ed
Ġ {
Ġbe en
Ġre p
Ġf irst
Ġme an
Ġrel ations
Ġsu b
Ġs m
Ġst art
en c
Ġp at
ver y
ĠĠĠĠ ĠĠĠ
Ġrelations hip
Ġ čĊč
as ed
t e
Ġ *
ce pt
w n
ou gh
he s
Ġf act
Ġt y
en g
Ġs ol
Ġbe c
Ċ F
ĠH ow
vel op
- -
od e
Ġke y
Ġre ad
ĊW hat
Ġth rough
in k
Ġw rit
ow er
st em
c ul
Ġw ay
Ġprov ide
ra ct
u res
Ġex ample
Ġp ot
Ġpers on
u ct
Ġat t
( )
ĊH ow
Ġc ol
Ġwh ile
f t
Ġtr ans
Ġa ct
res ent
Ġ 6
Ċ C
Ġd ay
i qu
Ġ ess
Ġfe el
Ġdis c
en ces
Ġta ke
Ġval ues
ĠW e
v ing
Ġthe n
iv en
Ġpot ential
Ġdiffere nt
o ple
Ġw ant
se lf
Ġin s
Ġre v
Ġ ide
Ġspec ific
ion al
Ġm ain
Ġdo es
Ġinc re
Ġj ust
n ce
Ġh igh
ow n
Ġh is
l ic
Ġte xt
c ial
en se
oc us
Ġde velop
Ġsent ence
Ġpro g
Ġb ack
Ġp ar
Ġse c
Ġy ear
is h
he n
Ġsign ific
it ive
Ġgen er
Ġle ad
an y
i ly
Ġc le
Ġpro cess
Ġb u
iv id
d ition
Ċ B
Ġm ed
Ġde f
Ġpe ople
in al
Ġ /
Ġse e
čĊĠĠĠĠ ĠĠĠĠĠĠĠ
as es
Ġint eg
eth od
ch n
Ġc ur
f ore
p ect
Ġmo st
m at
Ġcharact er
Ġ ident
l i
Ġl oc
Ġv is
Ġen g
oo k
Ġb l
Ġs um
Ġimp ro
Ġg rou
Ġin put
Ġwor d
Ġf ocus
Ġ You
Ġappro ach
ter n
Ġinform ation
Ġar g
Ġin f
ur ing
Ġb oth
ie w
Ġcal cul
al ity
i a
ot her
Ġev en
ic es
Ġl o
im ate
Ġ2 0
Ġcomm un
ical ly
ĠW hat
Ġsy stem
Ġon ly
r u
at her
Ġ 7
c ed
if e
Ġn o
Ġm ethod
ol og
n ess
Ġte chn
p r
au se
Ċ You
Ġprodu ct
Ġha nd
Ġprov id
ar ch
p ython
ra ph
Ġcon f
v es
Ġpl an
Ġpos s
Ġre qu
Ġall ow
in ce
le m
Ġc he
le ct
Ġg u
Ġre f
Ġm ult
Ġma king
Ċ O
Ġ 8
e x
ust om
v al
Ġ ed
iv es
n ect
Ġsignific ant
Ġimp act
Ġcor re
Ġqu est
ate g
at er
gg est
Ġde p
Ġ ent
r ic
Ġess ential
Ġen s
um ent
i an
Ġcomple x
Ġch ang
w ard
in ess
Ġs he
Ġa g
o ld
Ġsu ggest
Ġof ten
Ġsu pport
p s
Ġbe ing
Ġnumb ers
ĠF or
Ġa c
t s
Ġ \
i ous
Ġ <
Ġt erm
Ġt est
k es
Ġg row
Ġfe et
ĠP ython
Ġstr ing
Ġprob lem
Ġl ong
Ġto p
Ġin st
Ġs k
Ġc ustom
Ġc are
ad e
ys is
Ċ L
Ġimp ort
e xt
ere st
ight s
pl oy
Ġo pt
Ġs a
n g
Ġle t
Ġs al
er g
ĊT his
Ġs ense
Ġman y
Ġo wn
Ġb us
Ġs l
Ġs ur
Ġcl ass
Ġwe re
v ed
) )
Ġc a
ĊH ere
Ġst and
is ion
Ġ #
Ġc ase
Ċ 1
l ine
t y
Ġs n
Ġh ad
re ad
al th
Ġm in
Ġst ate
Ġsm all
ĠHow ever
Ġl ine
Ġco st
Ġm ark
Ġcomp any
c om
ction s
er r
Ġle ar
Ġs ame
Ġanal ysis
ĠB y
is s
Ġch all
w or
Ġar t
i ed
Ġ 9
Ġpart ic
Ġre al
Ġexper ience
Ġc ount
d ef
Ġpro ject
Ġst at
Ġcon nect
Ġg iven
Ġg reat
ver age
in ing
ab les
Ċ N
Ġex t
Ġint erest
c on
Ġeffect ive
Ġimpro ve
Ġinclud ing
Ġd ire
Ġp ass
Ġ V
Ġl ar
ri end
Ġs oc
he d
Ġwor ld
" ,
iqu e
re nt
ie ld
ĠS t
re d
Ġfollow ing
Ġcle ar
Ġpro f
ress ion
Ġinv ol
at ure
p ort
ang u
t al
Ġsh ow
Ġ |
iz ed
Ġper form
f ter
00 0
Ġ 0
Ġ1 0
Ġte am
Ġa v
o od
ut ion
in es
Ġme m
Ġth ink
t ain
Ġad v
čĊĠĠĠĠ ĠĠĠĠĠĠĠĠ
s s
Ġdist ribut
d er
Ġs er
ir on
Ġident ify
ur al
Ġob ject
ic k
Ġp ri
Ġre du
Ċ 2
g an
Ġde v
n er
Ġem ploy
b er
Ġl ife
ere d
Ġbus iness
Ġre se
Ġl og
Ġc ode
Ġo p
Ġl angu
Ġtr y
Ġ Y
Ġse lf
Ġst ep
Ġpoint s
Ġunderstand ing
enc y
Ġty p
Ġen v
Ġd own
Ġj ob
) ;
iz ation
on se
Ġprog ram
Ġst ory
Ġcont ain
Ġmod el
b s
Ġdes c
( "
Ġstr uct
Ġ âĢ
ra y
ic ient
Ġto tal
o id
e ll
Ġr ange
Ġt ri
1 0
Ġm ust
Ġe l
im es
ri pt
Ġmult i
a ir
m a
Ġis s
Ġwrit ing
Ġ est
Ġsn ail
ple ment
Ġwith out
ation al
Ġconc ise
Ġor ig
Ġdet erm
, "
Ġ K
ivid ual
e ad
et s
Ġp op
i x
Ġbe h
Ġenv iron
Ċ def
Ġth ough
Ġens ure
us s
Ġhe alth
Ġfe w
ag ing
e c
Ġind ividual
Ġresp onse
Ġyear s
s c
Ġlangu age
er ing
Ġstand ard
p ar
Ġind ic
Ġb en
are d
Ġm on
Ġ â
Ġbec ause
at or
o st
Ġarg ument
Ġe very
our s
Ġf am
l us
Ġp ur
Ġs erv
Ċ E
d ict
Ġ err
ar s
Ġchang es
e e
Ġposs ible
Ġst ill
Ġen d
Ġa verage
ĠC h
Ġf riend
in ed
Ġm ade
Ġn on
ur ther
o ice
it ed
Ġwith in
Ġcom b
Ġar ound
Ġle vel
rit e
Ġb re
pl ic
Ġst re
Ġ }
' ,
Ġem ot
r ing
u c
Ġcont in
Ġsc ore
Ġchall eng
Ġbu ild
Ġgo od
Ġt re
ert ain
Ġa ut
ill s
Ġp ower
Ġrem ain
o ve
Ġf in
Ċ D
Ġ z
Ġinclud e
Ġrep resent
i ation
čĊ čĊĠĠĠ
Ġcur rent
l ing
Ġ i
in s
Ġenviron ment
Ġt as
Ġch ange
Ġd ays
Ċ 3
as on
Ċ P
Ġph r
Ġd i
Ġh um
ie ve
Ġsoc ial
Ġstud ents
ent ion
Ġpos itive
Ġvari ables
at h
s w
Ġro le
ĊI t
Ġex am
pr int
Ġim plement
ĠA s
čĊ Ġ
et ing
id ence
pl es
Ġdes ign
ag es
t o
ĠH ere
Ġop en
Ġfact ors
Ġword s
âĢ Ļ
Ġsec ond
Ġbe fore
he re
Ġd on
Ġs om
Ġ vers
Ġbet ter
Ġs it
Ġorig inal
ar r
Ġf ound
Ġpr int
Ġf u
a ke
Ġn um
Ġanal y
Ġr ight
c ing
Ġun ique
Ġ1 8
Ġben ef
Ġstat ist
er n
Ġp ol
Ġa fter
cc ess
ar m
Ġcomm on
Ġbe l
Ġstr ateg
om m
pport un
Ġprob ability
Ġrese arch
Ġcl im
Ġgrow th
Ġpro per
Ġh ist
Ġ= =
a w
Ġde m
Ġexp ect
is ed
Ġo per
d dition
Ġdisc uss
Ġan sw
Ġdistribut ion
Ġty pe
eng th
Ġme as
Ġpl ay
Ġo pportun
i er
Ġdire ct
.. .
erg y
imate ly
Ġth ose
em s
Ġrequ ire
v en
Ġor gan
olog y
ul ation
oc k
Ġ1 9
ĠThe y
get her
Ġto gether
Ġd ra
Ġl im
i o
Ġl ess
Ġperson al
Ġele ments
ddition ally
Ġb est
ly ing
Ġc ent
ons ider
Ġide as
in ation
Ġloc al
il ities
Ġp resent
Ġare a
ll ing
Ġg ra
Ġare as
Ġstruct ure
Ġwor king
ict ion
Ġs qu
-- --
Ġgrou p
oo king
ual ly
Ġexper i
or ies
Ġsk ills
Ġke ep
l ist
it ions
ant s
l u
ĠThe se
Ġre ach
ĊA n
Ċ "
Ġa ch
Ġd uring
Ġsp ace
ot s
iv ity
Ġvari able
o x
Ġmain tain
Ġe ar
2 0
Ġexpl ore
l ation
ro ss
our ces
d ay
Ġpro m
ar ity
Ġme ans
is m
Ġterm s
Ġd iv
iz ing
ar get
Ġsu ccess
w ays
et y
Ġpri or
b ack
Ġf ield
Ġg l
it ing
Ġne cess
p re
ro du
Ġide a
Ġpartic ular
Ċ M
Ġman age
Ġcon cept
Ġa w
ff ect
Ġcont ext
Ġm ind
Ġen ergy
Ġm u
T he
Ġs ay
t he
Ġw ater
Ġse ver
Ġb ased
ot e
Ċ #
i or
at a
ver se
o pe
Ġpre v
Ġm et
Ġinv est
Ġo cc
Ġth ree
Ġp res
Ġover all
Ġin it
Ġadd ition
Ġreturn s
Ġr is
ub lic
Ġl ight
Ġta kes
Ġass um
Ġle ast
Ġneed s
Ġen c
Ġb all
l ish
Ġrelationship s
ent al
t ed
a x
Ġc ar
c i
a pp
Ċ R
ĠâĢ ĵ
Ġcont ent
Ġp ract
Ġadd ress
Ġequ ation
n ces
ist s
Ġsh are
u p
ut e
Ġh ours
ve y
Ġe as
Ġresult s
tern ative
Ġb ra
r on
_ {
or ing
Ġdat as
Ġc ru
Ġdiffere nce
Ġb al
Ġsom eth
Ġacc ess
Ġto o
Ġsent ences
Ġr ather
Ġn ame
Ġstr ong
Ġc ult
t le
Ġprof ess
ĠT o
end ing
Ġl ook
Ġstud y
Ġl ast
Ġcharact ers
Ġpl ace
Ġob s
Ġcalcul ate
Ġsever al
w ord
Ġsal es
u ation
Ġoff er
ib ility
p or
Ġimport ant
Ġmean ing
Ġn ow
Ġtr ue
Ġmulti ple
Ġquest ions
Ġor der
Ġgo als
Ġcru cial
Ġsometh ing
Ġcon vers
ir c
wor k
Ġex c
e w
Ġne xt
r al
ab or
o v
o ol
ĠA I
Ġvari ous
Ġser ies
an ced
al se
Ġ ve
Ġm ess
Ġwhe ther
Ġh im
a ve
Ċ U
Ġh ig
he mat
ĉ ĉ
ag raph
Ġcon st
ĊW hen
Ġcommun ity
Ġlar ge
ĊF or
an ces
Ġass ist
as ing
Ġvers ion
ro l
Ġc rit
Ġf urther
le x
Ġus er
Ġa ud
ith m
if ied
_ _
it al
Ġt em
Ġdec ision
Ġquest ion
Ġt arget
Ġre st
o ver
om et
Ċ 4
Ġal ways
Ġansw er
Ċ print
re n
Ġev ent
f or
Ġvis ual
Ġinf lu
e k
Ġma x
ter ns
Ġcommun ic
Ġas k
Ġha pp
ur s
Ġpar agraph
Ġins ights
p os
er y
rou nd
Ġgener al
Ġfl ow
Ġpat terns
Ġdevelop ment
l ess
Ġf il
id es
Ġdeterm ine
at ural
Ġ1 2
l t
le ase
Ġcre ating
Ġs ing
Ġstate ment
ver t
Ġc all
Ġne g
n ame
b e
Ġhe re
ĠThe re
Ġs ize
Ġc ity
Ġint erv
ĊB y
Ġanaly z
Ġbeh av
g in
at ures
Ġmat hemat
Ġsu re
at ch
Ġhum an
Ġf all
Ġpro t
Ġeng aging
Ġincre ase
Ġt imes
l ight
Ġcorre ct
Ġs ample
Ġco ll
" )
i ents
ĊA s
Ġph ys
Ġ es
Ġn et
Ġperform ance
h ile
Ġh y
al e
ĊAn other
ĠH e
Ġb i
Ġche ck
m er
em ber
Ġg ive
Ġlear ning
Ġchalleng es
d d
Ġbre ak
Ġs w
Ġw ays
Ġcl arity
a pe
Ġav oid
Ġt one
Ġto ol
e es
ĊI f
Ġexp ress
Ġd iction
os s
Ġta king
n um
Ġm ot
m e
e ff
Ġev ents
Ġs ince
Ġl ength
. ,
Ġl ooking
Ġfam ily
ar ies
Ġdet ail
Ġg ot
Ġconc lus
Ġev al
id d
Ġmu ch
Ġn u
Ġ very
val ue
Ġele ment
Ġmon th
Ġother s
Ġeffective ly
Ġag ain
Ġsc en
Ġsim ple
Ġr un
ist ic
Ċ Y
Ġel se
Ġcol le
Ġan other
og n
end ent
s et
Ġlear n
Ġsh ort
ou se
Ġcont ribut
Ġcorre lation
led ge
Ġcare er
Ġlike ly
y le
Ġrev ised
Ġn orm
Ġdatas et
Ġf ac
Ġma g
Ġresp ons
Ġg e
u le
Ġim m
5 0
Ġprovid es
Ġar ray
iv ing
Ġn atural
g er
Ġh ome
Ġdesc rib
Ġwor ks
ar ing
Ġpop ulation
Ġf re
Ġ1 00
er ial
Ġfe ed
Ġca us
Ġc irc
Ġiss ues
ĠT h
Ġind ust
Ġmethod s
Ġfo od
j ust
Ġd ig
Ġbenef its
in king
p ro
Ġst ay
y n
ra c
Ġform ul
ip s
str ing
Ġs ide
Ġp ast
Ġn ight
Ġknow n
o f
c ent
` ,
` .
Ġ .
čĊĠĠĠĠĠĠĠĠĠĠĠĠ ĠĠĠ
a pt
Ġa ffect
Ġerr or
Ġcustom ers
Ġd ue
as h
a ction
Ġest ab
ĠE x
b le
Ġde ep
ap s
Ġst ore
is es
Ġo ld
is f
Ġp ublic
Ġinit ial
Ġcustom er
il ar
] ,
am es
qu ence
Ġmo ve
Ġs ound
Ġre ason
o h
le t
Ġf ile
Ġed uc
Ġobs erv
Ġam ount
Ġas pect
a king
el s
Ġhe ad
Ġval id
ir d
Ġfu nd
Ġle ft
Ġm iss
at isf
Ġspec ial
Ġsol ution
Ġcon vey
r or
Ġinc or
Ġc ertain
Ġstep s
Ġexperi ences
= "
str uct
Ġtra vel
ĠY our
c ome
Ġtre nd
ire d
Ġt urn
Ġd ri
Ġrev iew
am p
le v
Ġprog ress
Ġc our
ast ly
i res
Ġinteg er
Ġnecess ary
Ġb it
d e
Ġsy m
1 2
n umb
Ġopportun ities
Ġphr ase
Ġac ross
Ġacc ount
u gg
Ġyour self
Ġn arr
Ġex ist
Ġl and
Ġmess age
Ġcont rol
Ġsystem s
Ġapp lic
Ġe y
Ġsa id
ĊHow ever
o int
Ġequ al
is ions
Ġlo ve
Ġaud ience
Ġact iv
S t
Ġd id
Ġmed ia
Ġen h
Ġapp ear
c ise
Ġbal ance
c l
Ġsing le
Ġhelp s
Ġach ieve
in ary
Ġdif f
Ġa ge
Ġdiction ary
in ally
Ġdev iation
od y
im um
nd om
Ġg ain
Ġprofess ional
um ents
a ut
ac hes
Ġhig her
Ġ č
Ġch ild
Ġr ate
ĠE m
Ġbehav ior
ĠA l
Ġd r
at ic
Ġeval u
Ġab le
am et
Ġcost s
I n
ĊW e
res p
ĊL astly
ou ra
Ġfeed back
Ġsqu are
ĠA n
Ġon line
Ġread er
ĠC on
Ġl ower
Ġmeas ure
Ġcon d
Ġmat erial
lt imately
Ġopt ions
Ġm om
Ġgrou ps
Ġscore s
Ġm us
ect ion
Ġit er
Ġl ow
ard s
Ġar r
Ġco eff
ĠB ut
Ġev idence
Ġb ul
Ġad just
ate ly
Ġbec ome
Ġus es
ĊN ow
Ġclim b
Ġv oice
m ing
b y
Ġallow s
Ġformul a
iqu es
Ġcom e
Ġsa f
Ġcoll abor
an k
Ġmed ian
ĊW rite
Ġemot ional
n ot
Ġcons ist
t ime
Ġb at
st er
Ġf ut
Ċ **
ang le
yth ing
Ġpers pect
n ov
ĠĠĠĠĠĠĠĠ ĠĠĠĠĠĠĠĠ
Ġ3 0
) ^
" :
Ġcl ose
Ġinvol ves
pp ing
Ġres ources
Ġindividual s
pt ion
read y
oo se
Ġfact or
Ġl it
Ġf ore
ch ool
ĠA nd
i od
Ġwe ek
ĠU se
Ġb r
ent ly
Ġfo ot
Ġs atisf
Ġv iew
Ġemploy ees
pt y
Ġcl a
r ror
Ġtyp es
Ġneg ative
Ġresp ect
ĠW hen
Ġun c
Ġ ver
Ġav ail
Ġal ready
t ies
our ce
Ġm ar
Ġallow ing
im al
Ġa ir
Ġth inking
ut ions
Ġint rodu
he ns
ward s
Ġqu ality
Ġbe gin
ri es
1 1
os p
ib r
Ġtas ks
Ġtry ing
Ġpat h
Ġinteg ers
Ċ 5
ac es
Ġredu ce
li ers
Ġline ar
Ġprovid ing
Ġactiv ities
an cial
Ġs ens
: :
Ġsit uation
fere nce
Ġstatist ical
al k
Ġ$ \
Ġg r
Ġth ings
Ġtechn iques
Ġfut ure
av a
l o
re en
h old
Ġeff icient
Ġt end
Ġstre ng
ig ate
Ġnarr ative
Ġc ateg
m ar
Ġme et
Ġd er
f ect
pe cial
Ġs ort
s ing
resp ond
Ġa ction
Ġf ree
Ġpre dict
Ġper iod
is hed
Ġaddition al
Ġ1 5
Ġmark et
Ġsim pl
Ċ (
ĠR e
r ue
a h
Ġro om
Ġse em
Ġcor respond
Ġcour se
Ġb ound
Ġdra w
ĊA dditionally
ful ly
Ġma kes
Ġcontin u
Ġiss ue
Ġknow ledge
Ġb ro
Ġc ap
Ġcomp re
Ġtas k
ram e
se l
Ġreg ular
Ġeng age
Ġp ie
Ġconnect ion
Ġte ll
/ /
' :
{ \
p ose
s h
in ct
Ġf inal
Ġgo al
end ed
r ation
mat h
Ġsome one
Ġform al
g or
Ġcont ra
Ġwor th
Ġfin ancial
Ġinst ead
ĠP ro
Ġprior it
Ġit self
Ġhist ory
pl ay
Ġ &
ag er
Ġtrans form
Ġstart ing
con om
Ġd ivid
Ġexp ression
are nt
Ġdec isions
Ġsu st
Ġform at
p ot
Ġdesc ript
E rror
ĠU n
Ġparticular ly
Ġal ign
at form
Ġthough t
Ġcompre hens
Ġind ep
Ġinter pre
Ġha ving
Ġse en
Ġ2 5
al ing
Ġsust ain
Ġ Q
Ġthough ts
ĊO ne
gor ithm
Ġconsider ing
ph as
us h
Ġcon dition
Ċ }
Ġb ring
Ġse quence
ĠS ince
Ġra ndom
ĊY our
Ġproduct s
Ġc ases
Ġmot iv
ĊThe re
Ġâ ī
ad d
Ġ X
Ġst yle
Ġconclus ion
Ġtyp ically
Ġcond itions
Ġset ting
Ġexpl ain
Ġdetail s
Ġconvers ation
Ġp ay
Ġex cept
Ċ G
Ġ1 7
ĊL et
Ġindust ry
Ġre ally
Ġâ Ī
Ġcon se
Ġdoes n
Ġge omet
k en
Ġn ature
Ġgo ing
Ġ >
Ġn av
Ġsim ilar
Ġche c
Ġmanage ment
pecial ly
an n
Ġris k
Ġmark eting
ive ly
ac y
er ns
it her
Ġcla im
Ġsuggest s
yn am
Ġre lev
Ġexper t
Ġpr ime
Ġdo ing
o ot
h or
er o
og raph
Ġestab lish
Ġlim it
b ers
Ġj our
Ġread ers
Ġincor por
Ġes pecially
Ġb as
u able
Ġse par
Ġpl atform
Ġre pl
Ġpos ition
Ġassist ant
j oy
c hes
Ġsu pp
Ġstr ugg
Ġup d
ile d
Ġfe atures
Ġele ct
ic ult
ort s
oo ks
Ġstrateg ies
} $
et ic
Ġphys ical
Ġsub ject
ĊA l
Ġca pt
Ġcrit ical
Ġal gorithm
Ġconc erns
Ġc ra
Ġrec omm
Ġinst ance
Ġpol ic
Ġcomple te
Ġin nov
( '
Ġfunction s
Ġpre p
ĠS he
Ġlo op
t ers
ĊC onsider
Ġsol ve
Ġtem per
Ġal ternative
Ġprev ious
Ġimport ance
Ġfor ward
Ġent ire
Ġlog ical
Ġre ce
ĠI s
l and
Ġout put
w rit
Ġpl ot
Ġe ver
Ġatt ention
im port
Ġh old
y c
ur ity
Ġc r
Ġk ind
ne y
Ġenh ance
Ġass oc
Ġex act
Ġ1 1
pt ions
pp ed
Ġp air
Ġrec ogn
om es
Ġfre qu
Ġenc oura
Ġacc ur
un ch
Ġs chool
Ġdiff icult
Ġg ram
Ġra d
Ġf it
Ġpo st
il t
Ġre ve
Ġv ol
Ġfriend s
s p
Ġp ain
f ace
Ġrel ative
Ġcommunic ation
Ġvis it
âĢĻ s
ĠA re
ĠC an
Ġproper ties
Ġcomp ut
Ġder iv
Ġch oice
lud e
Ġsol utions
f ort
Ġp ress
Ġref lect
ĠC onsider
Ġlead ing
on str
Ġ/ /
Ġout liers
ri x
Ġp a
i vers
it ch
av or
p ly
Ġpo ly
a z
Ġemploy ee
p ath
m in
Ġab s
Ġstreng th
Ġen joy
ĠS h
] .
Ġcol lect
Ġavail able
Ġappro x
b ra
numb ers
Ġtechn ology
Ġde g
Ġa ctions
Ġb ody
if t
Ġit ems
res ents
oh n
y stem
Ġprovid ed
Ġtra ining
ke y
Ġper fect
Ġindep endent
e ed
Ġhand le
Ġro ot
g es
Ġext re
Ġreg ression
Ġserv ices
Ġpr im
Ġconst ant
Ġper cent
at s
Ġd a
ĊC an
Ġse arch
as c
g s
ĊS o
Ġaw ay
Ġd ynam
Ġpre m
Ġh ope
ĠO ne
Ġrep resents
Ġtra ck
Ġe conom
or ical
Ġcl os
Ġinvol ve
Ġwrit e
Ġmem bers
Ġus ers
Ġsu it
f er
r ight
Ġnorm al
Ġbuild ing
im ize
ĠIn st
Ġinter act
Ġad apt
Ġerr ors
g ing
Ġget ting
ut es
Ċ import
i ety
Ġanalyz e
? "
ĠO ut
ĠA dditionally
is ing
Ġimplement ation
Ġsim ply
čĊ ĠĠ
av ing
Ġdem onstr
Ġdist inct
Ġlevel s
Ġrelev ant
Ġhy pot
Ġsm o
at ors
an e
Ġyou ng
Ġsum m
Ġcon ver
Ġ5 0
ĠA r
r ate
Ġset s
Ġgu id
Ġch oose
ens ion
Ġl a
^ (
2 5
1 5
Ġgu ide
Ġrel ated
Ġ1 6
Ġs ke
Ġab ove
Ġcomplex ity
Ġmus ic
ĠB e
om ial
il es
s on
Ġval uable
Ġneed ed
ĠW hile
Ġtrend s
Ġh ard
Ġemot ions
s ide
Ġan g
Ġpar amet
9 9
ĠM y
Ġgreat er
Ġne ar
Ġd oc
Ġth ird
Ġhe art
Ġh ouse
ĠL et
Ġcomm it
Ġem pty
Ġw ind
Ġwh y
iz es
Ġtool s
Ġ ill
ĠD o
Ġarg uments
it ud
Ġplan ning
com es
Ġd en
ĊT h
Ġbe aut
hes is
Ġdist ance
um e
Ġcoeff icient
Ġma j
Ġb ook
Ġs ides
Ġst ra
c ase
Ġbeh ind
Ġso ft
he l
ar c
Ġextre me
Ġst ress
Ġt reat
Ġexpect ed
Ġem phas
Ġb ase
Ġmom ent
Ġnum er
ed i
Ġf ar
ac ed
ter m
e le
ne w
re ate
qu ences
d ata
Ġmaterial s
Ġunder lying
Ġa im
Ġsignificant ly
end s
Ġthe ory
Ġout comes
ct or
iz ations
a iled
Ġwe bs
Ġlar ger
Ġtr ust
Ġinf in
ro p
< /
Ġcomp on
Ġim plic
Ġl ay
Ġm is
Ġserv ice
Ġagain st
m et
ore m
he ad
Ġdiffere nces
Ġproblem s
Ġassoc i
Ġindic ates
---- ----
Ġm or
Ġb ox
Ġcons id
en ing
ib ilities
Ġe ither
av es
Ġu nt
Ġfl o
' )
() `
: **
Ġam ong
Ġresp ond
Ġwe ight
Ġrequ ires
fere nces
Ġse lect
te xt
Ġstrateg y
Ġtra dition
ific ation
sel ves
Ġaut hor
in c
Ġpur pose
Ġab ility
ord ing
Ġfund am
at ives
t ic
Ġdirect ly
Ġpartic ip
i us
Ġ Z
Ġexpl oring
ir m
ers hip
ist ics
Ġcomb ination
Ġass ess
Ġwill ing
Ġqu ick
Ġde l
ĠThere fore
Ġcal led
Ġf ace
Ġfeel ing
u g
em ember
Ġloc ation
Ġsc he
Ġb o
ic i
Ġclim bs
ĊE x
Ġtrans ition
c o
Ġeduc ation
Ġrep ort
p ir
en ge
Ġcult ure
iv al
ut h
idd le
čĊĠĠĠĠ Ġ
Ġpat tern
Ġw om
m y
Ġrecomm end
Ġinterest ed
Ġtri p
Ġpr ice
Ġb ar
] )
ĊF inally
Ġme eting
Ġra ise
c ount
e per
t t
Ġp ut
Ġ2 00
ari ly
Ġc ause
Ġu r
s um
Ġinform ed
im ent
w are
l ines
Ġpriorit ize
Ġrel i
h aps
Ġdescrib e
ĠC om
O N
Ġg ame
y m
Ġw ide
Ġal ong
du ct
ach ing
en ue
Ġcre ative
Ġphr ases
a ctions
ph r
1 6
Ġaspect s
ot t
re am
ĊS t
Ġrem o
Ġind ex
Ġcomp et
Ġex er
Ġcontin ue
Ġdep th
3 0
Ġbel ieve
Ġl ot
Ġch o
ag on
u ly
Ġtrans port
ic le
Ġc ell
Ġinter n
^ {
Ġstud ent
est s
Ġfollow s
Ġmin utes
Ġmaj or
Ġf alse
c al
ang ed
s u
on t
Ġeffect s
p art
Ġd ed
ou ble
Ġfocus ing
ol ution
in st
enc ed
Ġpres ence
re t
Ġinterpre t
ĠE ng
Ġhigh light
Ġconf idence
Ġm ental
Ġr at
Ġsumm ary
Ġprom ot
Ġconsid ered
ify ing
le ep
Ġsu per
l ict
c ient
Ġ Î
er ate
= =
Ġey es
ĠS o
ĊB est
Ġt able
g o
Ġto wn
ĊN ext
ast e
Ġfundam ental
Ġp ack
Ġfind ing
Ġr out
in ter
ron t
Ġexpert ise
m ore
Ġfu ll
Ġma ch
Ġappro aches
Ġenvironment al
Ġeng ine
ĊF irst
Ġresult ing
a ur
Ġdet ect
m osp
Ġpur ch
Ġinflu ence
Ġdire ction
ĠOut put
Ġda ily
Ġreason ing
Ġmodel s
Ġf our
} \
1 8
a res
ak es
id s
Ġexpl an
Ġsmall er
Ġdiv is
Ġchalleng ing
Ġadd ed
Ġta il
Ċ f
Ġcomp an
ĠO n
olog ical
Ġstart ed
Ġm en
Ġjour ney
Ġincre asing
ĠD e
Ġsuggest ions
Ġexam ples
Ċ 6
Ġopportun ity
Ġat mosp
ur y
Ġf ul
er ve
word s
Ġqu ant
Ġunt il
be ing
Ġd one
ĊU ltimately
Ġre phr
Ġgener ate
str u
al ue
Ġcol or
ver n
in put
itud e
Ġdef in
Ġprev ent
ar is
Ġmathemat ical
Ġsp read
Ġchall enge
Ġsu n
Ġg ives
Ġobject s
g round
E R
Ġb ig
Ġmax imum
Ġb ud
Ġde eper
iv ed
Ġsec urity
Ġinterest s
her s
Ġro w
Ġscen ari
Ġadd ing
Ġon ce
Ġchild ren
Ġsw itch
" .
Ġst ates
Ġconf lict
g est
mer ic
e qu
Ġperspect ive
Ġw arm
Ġapp re
Ġindic ate
Ġdec re
pp er
ĊS ince
Ġz ero
b ased
a ult
Ġcom fort
Ġl aw
i um
Ġg raph
Ġpri v
ĠI nt
Ġpop ular
Ġcontinu ous
w ise
ra p
am b
on es
Ġsc ience
Ġsc ient
Ġapprox imately
Ġto wards
Ġcontain s
Ġact ually
Ġmonth s
Ġsal ary
ore d
Ġincre ased
Ġto day
u ck
ag ed
Ġimplic ations
Ġd ark
Ġeas ier
Ġconcept s
e y
d own
Ġf ig
Ġtradition al
Ġen ough
Ï Ģ
Ġcan not
Ġco o
ĠW ith
c ast
Ġse ason
Ġres id
Ġmaintain ing
ĠS ome
m od
Ġr ich
Ġsh ape
Ġear ly
Ġapplic ations
Ġ %
Ġproper ty
Ġh on
Ġevalu ate
Ġw a
Ġproject s
y pe
Ġinclud es
c y
Ġcons um
os ing
it le
Ġorgan ization
Ġr ule
Ġr ates
ul es
Ġopt ion
Ġph ot
u nd
il led
Ġgo vern
Ġex h
Ġro b
Ġthem selves
Ġm ention
n omial
Ġfeel ings
Ġpie ce
Ġmat ter
Ġeas y
1 4
Ġne ver
Ġg ard
ĠN ew
Ġwebs ite
Ġpower ful
Ġre d
om s
h ood
res h
p oint
u se
Ġuse ful
op h
čĊ ĉĉ
Ġaw are
if ically
il it
Ġd u
Ġnet work
Ġhe ight
al y
Ġde b
Ġtr uth
le ction
Ġp ort
Ġsur round
" "
Ġach ie
Ġun its
m it
Ġmeas ures
es p
Ġassoci ated
Ġd est
ĠThe n
Ġrequire d
ou n
Ġl en
Ġind eed
Ġbra nd
1 3
Ġpoly nomial
Ġimprove ment
ff ee
Ġse ems
1 9
Ġcol um
Ġderiv ative
Ġtemper ature
Ġcl imate
Ġpre cise
o in
Ġbec omes
Ġl oss
Ġs ources
Ġref ine
Ġlit tle
Ġstr ings
li er
0 5
om in
Ġevery one
f ile
p ers
Ġcorrespond ing
op s
ĠN one
Ġthrough out
Ġmathemat ics
ĠA lex
v ent
Ġc amp
t r
ĊThe se
z z
Ġaccur ate
Ġrat io
Ġbud get
Ġbu ilt
Ġexist ing
ĠS c
Ġcom es
Ġf lex
Ġdis play
Ġexact ly
Ġredu cing
Ġgram mar
Ġmat rix
u ations
Ġconse quences
Ġl iving
Ġsche du
ĠA meric
Ġy et
Ġgeomet ric
Ġdem and
Ġact ive
Ġch ance
Ġconnect ions
Ġsur face
y ear
or n
Ġcre d
Ġ1 4
- >
Ġt im
Ġmat ch
ĠE ach
ir t
pl ain
i et
one y
Ġac cept
Ġout come
Ġnot e
Ġsuit able
Ġdesign ed
Ġlong er
Ġp u
g ed
Ġcalcul ated
ĊThere fore
Ġim pl
Ġ ...
g en
Ġem ail
Ġs leep
Ġoper ations
Ġon es
) (
Ġatmosp here
Ġguid ance
Ġan cient
r t
Ġcent ral
ic ial
Ġassum ptions
Ġf ail
Ġnav igate
ma x
Ġpract ice
ck now
Ġt al
ass ert
Ġchec ks
Ġl ibr
Ġsustain able
t ract
Ġc ore
Ġcon struct
Ġsub st
Ġrelative ly
cl ass
Ġrest aur
ol ute
Ġh ab
Ġess ay
Ġout side
h o
Ġcomprehens ive
Ġl ack
ab ilities
Ġprodu ction
Ġhypot hesis
Ġv ide
Ġ1 3
Ġoff ers
Ġchang ed
Ġsl ight
le ft
c are
idd en
in ci
Ġcompan ies
l og
or k
Ġdiv ide
Ġres on
Ġg ather
ĠĠĠĠ Ġ
Ġconsist ent
Ġnu anced
Ġprim ary
Ġrev enue
Ġw ond
ch an
el t
Ġsignific ance
ĠInst ead
Ġro ots
Ġus age
Ġens uring
f oot
Ġmem ory
Ġcomp are
Ġpress ure
Ġco ffee
Ċ |
Ġrec ord
urther more
Ġtri angle
Ġm ix
Ġdis e
Ġl ives
Ġremain ing
c ol
Ġdr ive
Ġtr uly
l er
Ġatt ribut
Ġch art
Ġcontribut e
ĊAl ternative
Ġcirc le
ow s
Ġf ra
Ġm iddle
u ro
i ar
au gh
ĠJ ohn
Ġf ix
al f
Ġf rame
Ġexpect ations
pl it
writ ing
c ript
Ġact ivity
Ġf ast
Ġpro pos
enc ies
} ,
Ġcle an
he ck
Ġinterv al
Ġimm edi
Ġremain der
ĊAlternative ly
Ġ< <
d o
Ġgrou nd
ab el
Ġp arent
Ġfam il
Ġprot ect
d ate
a ff
Ġl ines
() ;
Ġpolic y
Ġs ource
Ġit em
Ġdivid ed
Ġth ing
ver all
lo ad
Ġtechn ical
Ġf avor
Ġre pe
Ġan ything
f rac
l s
1 00
ar th
ial og
Ġwe ak
Ġed it
Ġwrit ten
b ol
m an
c os
Ġremain s
Ġob tain
Ġmiss ing
Ġfocus ed
Ġsu ff
Ġf un
Ġim ag
Ġw atch
ast ic
m on
Ġshow s
ĠT rue
Ġris ks
Ġrec urs
ĊR emember
Ġbro ad
Ġbusiness es
Ġan n
Ġrese arc
Ġdynam ic
ĠA t
Ġst ories
Ġcon vert
Ġa cknow
nt ic
Ġreg ard
f l
t on
Ġt ou
ĠC l
ĠI m
Ġan x
now n
Ġt u
Ġencoura ge
l ike
Ġw ar
Ġapp ly
r ig
Ġincre ases
Ġu t
ord in
Ġsatisf action
I N
ĠF alse
Ġm ill
Ġdep art
Ġb reat
6 0
Ġ :
ma king
Ġreg ion
Ġpa per
Ġdet ailed
Ġoff ering
Ġrem ember
iven ess
Ġm ist
Ġfield s
1 7
Ġever ything
Ġcra ft
Ġconc ern
Ġle g
Ġme chan
he ntic
r id
Ġpr inci
Ġvari ance
Ġex ec
ĊO n
Ġc at
Ġindic ating
ge bra
Ġsuccess ful
ob al
Ġsaf e
in ations
pl ace
Ġanalyz ing
" >
Ġl at
im ens
ce ed
Ġfind ings
Ġspe ak
Ġ2 4
Ġprogram s
Ġunc ertain
Ġrepresent ation
Ġhapp y
Ġman ager
ĊE m
Ġup on
Ġback ground
id th
d a
Ġass ign
Ġcult ural
ul ations
s er
Ġpl ant
Ġu nd
v oid
Ġ4 0
ad em
Ġre ality
Ġla unch
l ife
Ġnu ll
Ġl ive
Ġdoc ument
Ġappear s
2 4
Ġw on
rac y
Ġschedu le
Ġbul let
Ġexp ens
Ġbound aries
Ġsoft ware
ol ving
ĠP er
ul ate
Ġstatist ics
Ġpract ices
Ġdig ital
Ċ assert
Ġnot ing
Ġprem ises
Ġadv ance
čĊ čĊĠĠĠĠĠĠĠ
ic it
v ide
Ġg reen
Ġcare fully
Ġtest ing
Ġpart s
ĠP l
m s
Ġreve al
Ġbl ack
it ation
Ġh ot
Ġo dd
Ġcontra st
Ġed iting
ure d
Ġlist s
f act
Ġo pp
Ġdes ired
Ġpro port
he st
Ġde ad
( \
ve ys
Ġs ection
Ġlim ited
Ġill ust
Ġread ing
Ġsl ips
im in
Ġexer cise
Ġsp ent
Ġem erg
Ġl if
Ġsmo oth
Ġsl ow
am ed
Ġf air
app end
Ġsaf ety
or ation
Ġmod ern
le ar
Ġc ut
Ġinvol ved
b o
Ġsp aces
Ġwe ather
cept ion
q rt
Ġprep ared
Ġcharacter istics
Ġint ent
} {
Ġident ity
Ġeff orts
Ġstra ight
re ct
Ġinterest ing
Ġvisual ization
Ġaut hentic
y ond
Ġey e
ialog ue
Ġquick ly
ĊI m
m iss
e ue
Ġle ave
Ġd ate
Ġapp e
ĠE arth
s ub
Ġeconom ic
Ġc ard
8 0
2 2
S T
Ġta ken
Ġpres erv
Ġm ass
w ay
6 4
Ġb inary
Ġded ic
lus ive
Ġrequire ments
ou d
A T
Ġmag n
Ġpart ner
Ġst e
ip ment
t est
ĠU sing
ĠI nd
ar ray
os ed
ĠJ ava
Ġd am
Ġmach ine
Ġf resh
Ġ6 0
Ġact ual
ici ency
Ċ 7
Ġtop ic
sc ore
) $
Ġor d
Ġpre fer
Ġexp and
u ff
w here
Ġsym met
Ġpre c
Ġcon duct
Ġacc ording
Ġinfin ite
Ġw alk
Ġsh ap
Ġsh ared
Ġan t
c hed
ot al
Ġplatform s
Ġappre ci
Ġcent er
Ġh ost
Ġve h
Ġc os
r ics
pect ed
E x
Ġinterv iew
Ġb ott
Ġstate ments
Ġspe ed
ivers ity
Ġmult ip
Ġ _
Ġun it
nt er
Ġst ack
Ġal gebra
Ġmod e
Ġh arm
h ich
Ġstruct ures
Ġpotential ly
Ġinc ome
Ġpat ient
Ġcount ry
Ġarr ange
Ġhist orical
Ġwho le
u ild
Ġdef ined
Ġcre ates
Ġbe yond
a ks
ĠO r
' ]
l ated
all s
hold ers
Ġengage ment
Ã ©
Ġm oney
+ +
Ġbl ood
čĊĠĠĠĠĠĠĠĠĠĠĠĠ ĠĠĠĠĠĠĠ
Ġsort ed
Ġtransport ation
Ġbl ock
d ent
Ġp ict
ra d
Ġcollabor ation
igh b
em pt
Ġimpl ies
Ġpercent age
Ġhelp ful
Ġinnov ative
ĠEm ily
00 00
' (
Ġ" ""
al es
Ġadv ice
if ul
Ġperspect ives
b an
Ġf ive
ĠR es
Ġp lease
l ights
Ġadv anced
Ġrem ind
Ġbreat h
Ġexpl icit
ac hed
ew rite
g ment
y ing
rom e
Ġass ert
Ġh idden
Ġ Â
ĊO verall
â Ī
Ġidentify ing
at ivity
Ġrel ax
ch ar
od es
Ġslight ly
ab ly
Ġcompon ents
Ġprodu ce
Ġt our
ens ity
Ġc yc
Ġde li
Ġdevelop ing
Ġm id
Ġnecess arily
# #
olog ies
Ġdep ending
ff ic
Ġd ialogue
Ġpass ion
ĠC al
pe c
as ons
Ġt ree
Ġm ent
Ġobserv ed
Ġv ary
ĠCh anged
Ġbel ow
at ory
f riend
Ġtreat ment
w ed
v iew
Ġcolle ag
Ġincre d
b it
2 3
) /
Ġfrequ ency
Ġsepar ate
ĠS p
Ġb ooks
ĊP ro
tern al
en ed
ĠR ewrite
ism s
ĠIn c
pe lling
Ġs am
Ġrec ent
a f
Ġa ff
Ġn ames
ell o
amb da
Ġpl ants
Ġmod ule
ĠS im
Ġthe orem
Ġprocess es
Ġest imate
Ġdef ine
Ġcolle ction
Ġw aste
Ġsee king
Ġsub tract
Ġwant ed
Ġ+ =
Ġfl aw
' .
ou b
Ġl ater
Ġta x
rou p
Ġopt im
Ġa f
et ime
at ter
) `
C on
it es
Ġpre ferences
Ċ J
Ġim age
Ġl ink
w hel
ic les
ol ve
ig ation
Ġexper iment
Ġequ ipment
Ġc op
Ġest im
Ġ2 1
s ize
Ġdo or
re es
m ed
Ġscen e
ĊG iven
Ġatt ract
Ġfall acy
l ished
Ġhigh ly
Ġst aff
Ġlo st
Ġland sc
Ġpl ots
Ġqu art
Ġincorpor ating
Ġhealth y
Ġ9 0
Ġdu plic
Ġmention ed
Ġmon it
Ġ8 0
Ġbel ie
m ost
Ġread y
ad r
om ain
z e
Ġanx iety
Ġover whel
Ġmo ving
Ġrem ove
Ġl ies
Ġhand s
ell ig
ð Ł
A R
Ġtou ch
wor ld
Ġdri ving
Ġnot ice
Ġs ix
Ġimm ers
ĠEng lish
Ġmed ical
Ġapplic ation
Ġhe at
Ġac adem
Ġle aving
b b
Ġexc ited
ic ro
Ġt ension
Ġsub tle
Ġext ract
o very
Ġv ill
Ġbas ic
un e
Ġh alf
i os
Ġinit i
Ġhigh lights
Ġf ire
Ġmag ic
7 5
Ġs ect
Ġser ve
Ġprior ities
Ġexh ib
Ġcom pelling
s pect
a ign
Ġpriv ate
Ġ[ ]
ag n
r ated
Ġ ri
Ġcre ated
Ġin ner
so le
Ġsh ift
al ind
Ġfe ature
irt ual
stru ction
ind ex
Ġabs olute
Ġfound ation
ĠT hat
Ġc ities
Ġrun ning
Ġcount er
Ġbeaut iful
L E
u racy
alue Error
Ġexplan ation
um p
Ġgovern ment
ar row
ou th
} }
[ '
Ġgl obal
Ġrepresent ed
ear ch
Ġspec ifically
Ġadv ant
Ġle d
Ġsit uations
Ġsol ar
Ġear lier
se c
Ġf asc
Ġd ouble
Ġbl ue
C h
Ġne ighb
ar ah
Ġatt empt
Ġ id
Ġman ner
ĠN ow
Ġbi ases
Ġsl ip
Ġco in
Ġn ode
4 5
ac ies
Ġar ch
Ġmy st
Ġw ild
Ġext ra
ar g
Ġcomput er
Ġdi verse
res ult
or ld
k nown
Ġ ing
4 0
Ġmotiv ations
Ġ Ã
Ġsound s
Ġopen ing
Ġst ri
m b
oy al
e ks
Ġmin imum
rodu ct
Ġst d
Ġg iving
Ġag ree
Ġc atch
Ġch ann
Ġlet ter
Ġeff ort
Ġmy self
agon ist
Ġus ually
Ġde lic
ĠS e
Ġprom ote
Ġexp on
ĠE n
Ġlet ters
ĠM ay
Ġt itle
Ġinter actions
Ġke ys
Ġscenari o
Ġsh aring
Ġhelp ing
3 3
Ġimpro ved
Ġatt end
Ġlibr ary
s ort
čĊ ĉ
Ġs il
Ġh our
Ġstrength s
er a
Ġco ver
int s
_{ \
Ġfeel s
are r
Ġe t
al le
ĠD r
omm od
Ġqu adr
Ġconf irm
an cing
Ġb ri
( ):
Ġpr on
ty pe
Ġstre am
e an
Ġmeaning ful
âĢ Ŀ
Ġhe av
Ġobject ive
Ġhe ar
Ġfig ure
b on
Ġs ess
Ġcamp aign
Ġreli able
Ġc and
Ġtra ffic
Ġent er
o es
Ġcirc um
Ġdevelop ed
Ġdeg ree
ĠA dd
Ġsc ale
Ġm it
Ġman ip
est ed
Ġpr ices
o pt
ĠU S
Ġrespons ibilities
C T
Ġu ltimately
Ġdise ase
Ġprogram ming
Ġt alk
enc ing
ic ing
Ġrestaur ant
Ġgard en
Ġcomp ared
Ġmat h
Ġinteg ral
Ġc ross
Ġreg ards
Ġdev i
ap an
if ies
Ġsym bol
Ġc ry
Ġth r
Ġatt ack
val ues
p y
Ġro ad
Ġcommunic ate
Ġwork ed
Ġacc om
er al
Ġy ield
Ġpract ical
Ġn amed
i k
Ġhon est
ib ly
Ġr ules
Ġacc uracy
Ġmet rics
Ġwe b
Ġs we
Ġvide o
Ġenc ount
Ġlog ic
Ġspec ies
ĠM ake
om en
Ġrepl ace
Ġorgan izations
Ġqu ite
Ġaut om
Ġcont act
Ġve ctor
Ġins ight
Ġinter se
Ġf arm
Ġconclus ions
Ġgener ally
at able
l ength
Ġwh is
u ll
alind rome
o ff
R E
Ġclose ly
oc ation
Ġinteract ive
Ġfind s
ir ing
čĊĠĠĠĠĠĠĠĠĠĠĠĠ ĠĠĠĠĠĠĠĠ
st ep
