#version: 0.2
t h
i n
th e</w>
a n
t i
r e
e n
e r
o n
in g</w>
o u
a r
an d</w>
t o</w>
o r
o n</w>
a l
s t
e s</w>
o f</w>
e r</w>
a t
i t
e d</w>
i s</w>
o r</w>
i n</w>
r o
a c
a t</w>
s i
c a
e l
ti on</w>
d i
e c
e s
l i
o m
a l</w>
c on
v e</w>
w h
l e</w>
s u
a s</w>
e x
a s
r i
m a
th at</w>
d e
p ro
l e
u s
e n</w>
v i
c e</w>
l o
o u</w>
u n
ti on
y ou</w>
l y</w>
i t</w>
t s</w>
f or</w>
u r
a b
c h
p o
ca n</w>
f i
ou r</w>
r a
th e
s h
i l
en t</w>
m p
w it
c om
th is</w>
n o
s p
a n</w>
e t
wit h</w>
s t</w>
ar e</w>
c h</w>
t a
b e</w>
y our</w>
l a
s e</w>
at e</w>
g h
o l
a d
tion s</w>
er s</w>
q u
h a
s e
it y</w>
or e</w>
ou l
v er
p er
oul d</w>
er e</w>
b u
m o
m e
f e
a g
c i
m e</w>
o p
n e
k e</w>
p re
b e
th er</w>
in t
a tion</w>
m i
w e</w>
w e
f or
h o
u l
b y</w>
u m
en t
d e</w>
a p
w or
c o
r ou
d s</w>
wh i
d u
ou t</w>
c re
s o</w>
m ore</w>
t r
h i
i f</w>
ti ve</w>
p l
s a
e t</w>
t o
t h</w>
al l</w>
f ro
d at
es s</w>
f in
on e</w>
v e
d ing</w>
fro m</w>
p ar
c l
i r</w>
con t
gh t</w>
en ti
re n
st r
en ce</w>
g i
t ur
ou n
m ent</w>
v al
c es</w>
k ing</w>
en ts</w>
ha ve</w>
ou r
no t</w>
r e</w>
wh at</w>
al ly</w>
an g
a y</w>
c tion</w>
o o
the ir</w>
ab le</w>
an t</w>
si on</w>
ac h</w>
ec i
p u
d er
d o
` `
t er
f un
d er</w>
a r</w>
t ing</w>
whi ch</w>
es s
val u
m in
t ed</w>
al so</w>
s om
bu t</w>
o f
dat a</w>
an ce</w>
in g
t er</w>
n a
ca l</w>
s c
ar i
con si
com p
i mp
n um
h el
ho w</w>
the y</w>
an y</w>
o ther</w>
w il
el y</w>
ag e</w>
v er</w>
re d</w>
it s</w>
or i
h e
us e</w>
t e</w>
s el
w i
e f
t e
num b
b o
re s
i m
c u
p s</w>
c ould</w>
fun ction</w>
p or
th es
st e
p e
c e
w as</w>
b et
pre s
w n</w>
e v
m y</w>
cl u
w ould</w>
ar g
thes e</w>
com m
lo w
j o
ab out</w>
wil l</w>
ti es</w>
ec t</w>
k e
m ar
f ac
es t</w>
g n
in t</w>
al l
c or
p ri
i s
li ke</w>
s er
l in
fe ren
di f
wh en</w>
ti v
h as</w>
g o
for m
pro vi
en g
a d</w>
a v
us ing</w>
at e
us t</w>
t ra
st an
ex t</w>
mp le</w>
su ch</w>
som e</w>
a m
c ol
ne w</w>
re s</w>
y th
t u
or y</w>
l l
g h</w>
re la
y s</w>
hel p</w>
bet we
betwe en</w>
sp eci
ma ke</w>
p h
in to</w>
i d
st s</w>
re tur
at ing</w>
g rou
th ere</w>
d o</w>
p a
c t</w>
ex per
h ere</w>
at ed</w>
g u
g e
d ed</w>
un i
int er
cont ro
g ra
ti me</w>
it e</w>
cre ate</w>
p r
i d</w>
ch ar
c ul
ar d</w>
sh i
f o
ex a
e m
ar y</w>
or s</w>
ti m
ou s</w>
si on
y e
int e
dif feren
al s</w>
tion al</w>
k s</w>
al i
w el
consi der</w>
as e</w>
un der
enti al</w>
s es</w>
t en
numb er</w>
f a
w r
y ing</w>
z e</w>
wh ere</w>
v el
fi r
sel f</w>
p yth
ma y</w>
a u
re sp
f u
a tions</w>
pyth on</w>
il ity</w>
v ari
si b
th an</w>
sh ould</w>
c le
the m</w>
o b
t w
r u
l l</w>
si gn
0 0</w>
ap pro
no w</w>
s en
as t</w>
ac k</w>
a f
d ay</w>
contro ll
s ti
c ur
st ar
wi th
li st</w>
ex p
di vi
us ed</w>
c ri
g et</w>
exper i
ou t
* *
s o
h er</w>
whi le</w>
v ing</w>
po s
e qu
th o
* *</w>
tw o</w>
c ess</w>
w ay</w>
at ur
s y
t ri
st a
h e</w>
ch ang
at es</w>
mi ght</w>
wh o</w>
c s</w>
di st
char ac
wor k</w>
su b
su l
st u
p i
re f
l es</w>
in clu
ing s</w>
ac t</w>
speci fi
u p</w>
a ys</w>
pro b
th in
i l</w>
resp on
i r
en d</w>
lo o
pu t</w>
s ec
re sul
n ec
ci al</w>
f ol
g re
ar d
an al
retur n</w>
m an
fin d</w>
en er
a m</w>
ti c</w>
exa mple</w>
v es</w>
th en</w>
u s</w>
t y
h is</w>
f ec
anal y
be en</w>
m s</w>
tur e</w>
m b
fir st</w>
en c
on g</w>
g e</w>
s ent
n s</w>
we ver</w>
sh e</w>
le t</w>
ho wever</w>
`` `</w>
rela tion
1 0</w>
re ad
oun d</w>
e mp
su re</w>
str u
se ar
d es
ar s</w>
rou te</w>
relation shi
pro du
v ed</w>
th rou
ta in</w>
ac e</w>
ab ility</w>
ma n</w>
a re
s ol
in v
be ing</w>
su r
sh o
d eci
di s
ca tion</w>
g et
c er
vi e
valu e</w>
t en</w>
s m
pe op
o ver
peop le</w>
tr an
t ec
provi de</w>
li c
u e</w>
i de
f y</w>
re qu
ne ed</w>
mo st</w>
j ust</w>
ex pl
c al
re e</w>
di c
se t</w>
er r
mar k
an d
u m</w>
st ory</w>
la r</w>
e d
po t
g a
en d
cu st
i c</w>
gh ts</w>
fu l</w>
d es</w>
sib le</w>
p p
g y</w>
v en</w>
s it
as ed</w>
specifi c</w>
ta ke</w>
m on
cust om
m u
fi c
ce p
b ack</w>
g in
ke y</w>
t y</w>
per s
de vel
e l</w>
stu d
m at
ro w
`` `
ha d</w>
ta tion</w>
lo w</w>
of f
ma king</w>
grou p</w>
f ri
ef fec
bo th</w>
an s</w>
po si
id enti
g g
b i
ri bu
ev en</w>
w ere</w>
s our
er @
som e
controll er@
t ext</w>
wel l</w>
throu gh</w>
il l
b r
ve l</w>
w er</w>
c our
n i
en ces</w>
me di
l ing</w>
in ing</w>
oo d</w>
low ing</w>
lin e</w>
c li
at er</w>
wor l
t ly</w>
n ing</w>
appro ach</w>
in ts</w>
s ed</w>
et ing</w>
c ity</w>
k es</w>
ac h
su p
re sear
thin k</w>
inte g
f l
ver y</w>
sion s</w>
par ti
j ec
er i
n ess</w>
m ents</w>
po int</w>
imp or
$ 0</w>
f e</w>
as s</w>
for ma
differen t</w>
sy ste
s in
on ly</w>
in cre
me tho
of ten</w>
m any</w>
lo gi
fac t
de p
po st</w>
an other</w>
``` python</w>
k no
it ing</w>
c oun
qu es
sent ence</w>
sen se</w>
p at
n atur
s ing</w>
do es</w>
a tive</w>
pot ential</w>
in put</w>
c ally</w>
w ant</w>
valu es</w>
i fic
ad di
sign ific
numb ers</w>
gi ven</w>
bu il
fi ci
ca se</w>
worl d</w>
experi ence</w>
e ment</w>
t ers</w>
s h</w>
g ener
comp le
ty p
tiv ely</w>
th ou
sup por
stan ding</w>
li ght</w>
in e</w>
s or
m ent
ap p
at ely</w>
con nec
c k</w>
stan d
pr int</w>
u p
relationshi p</w>
for m</w>
di sc
charac ter</w>
ar ra
hi gh
prob le
col l
b re
re pres
g row
vi r
on s</w>
re c
forma tion</w>
em ents</w>
e p</w>
arg um
si ve</w>
res s</w>
o ver</w>
v o
s al
al ity</w>
pos sible</w>
po ints</w>
n o</w>
l arg
im pro
de f</w>
b us
ca p
c ed</w>
stru c
t al</w>
w ays</w>
sin ce</w>
b oo
su c
resul t</w>
r ang
inte re
se e</w>
fe et</w>
con ver
under standing</w>
st ing</w>
do wn</w>
el ements</w>
des cri
ch o
un ity</w>
ori es</w>
fe el
w s</w>
s k
t as
por t
la tion</w>
pro cess</w>
el i
ve hi
m ul
ye ars</w>
star t</w>
s et
ch oo
cal cul
th ing</w>
mark eting</w>
li fe</w>
in st
bus in
with out</w>
m en
di g
a k</w>
resear ch</w>
h u
z ed</w>
in formation</w>
co st</w>
au th
2 0
j ect</w>
de vi
si de</w>
re g
qu e</w>
mul ti
ess ential</w>
emp lo
s s</w>
m ust</w>
et ri
com b
ci se</w>
tec h
z ing</w>
sour ces</w>
sa me</w>
ol d</w>
me an</w>
jo b</w>
as si
wr ite</w>
with in</w>
o th
inv ol
devel op
as s
stand ard</w>
ad d
ac ti
w ar
sa y</w>
jo b
i ce</w>
c ess
b ased</w>
ar ly</w>
we i
p la
dist ribu
b all</w>
t re
sol u
sp e
m y
m il
grow th</w>
e mo
2 0</w>
vehi cle
ter min
te mp
ne e
identi fy</w>
ch all
chall eng
s is</w>
ro o
on g
in i
f ur
af ter</w>
t es</w>
pro f
p ur
fe el</w>
an i
cont in
con clu
ang u
in s</w>
ca use</w>
pro gra
n on
fol lowing</w>
ef fici
ar t</w>
pu b
g n</w>
fl u
b en
pub li
on d</w>
ex pres
tim es</w>
na me</w>
k now</w>
b est</w>
ver age</w>
to tal</w>
requ i
po pu
op port
le ar
re ct</w>
t -
st ed</w>
ph r
or g
t able</w>
n ext</w>
it al</w>
he al
f ul
as es</w>
o c
le ad
in de
ex i
eng ag
d en
d ence</w>
chang e</w>
to ge
toge ther</w>
me mb
ma de</w>
m m
impor t
er ing</w>
c lo
pl an
ori gin
f t</w>
cle ar</w>
$ \
tr u
n er</w>
inclu de</w>
g ood</w>
fe w</w>
f oo
consi der
ac tions</w>
wh e
ta il
de termin
comp any</w>
b al
syste m</w>
su m</w>
rang e</w>
i li
com e</w>
ate g
pers on
n u
in divi
indivi du
wor ds</w>
st and</w>
sp ec
d ays</w>
ca tions</w>
c ateg
al ter
over all</w>
n or
hu man</w>
fa mi
an s
c le</w>
c an
w a
sm all</w>
disc us
busin ess</w>
argum ent</w>
a verage</w>
z ation</w>
typ e</w>
proble m</w>
ma x
ac k
uni que</w>
signific ant</w>
l angu
imp act</w>
vir on
suppor t</w>
si mp
produ ct</w>
m or
it ed</w>
equ ation</w>
en viron
co de</w>
^ 2</w>
s co
op tions</w>
l ess</w>
analy sis</w>
to p</w>
th ree</w>
sti ll</w>
s na
re du
lin e
de fin
d ur
wr iting</w>
st ly</w>
st er</w>
it er
d ri
b l
re as
i ma
sh are</w>
oth ers</w>
ide as</w>
fi el
err or</w>
ad d</w>
$ 1</w>
wel l
ma in
so cial</w>
sna il</w>
sc ore</w>
re le
ma in</w>
j u
gi ve</w>
w ard
ti sti
respon se</w>
pri ori
ph y
p le</w>
origin al</w>
low s</w>
in dic
imp le
enc y</w>
e valu
cour se</w>
b ec
1 /
th s</w>
are a</w>
ar ound</w>
ad v
se e
tr y</w>
tion ally</w>
tho se</w>
se ver
ob ser
metho d</w>
li m
1 9
1 2</w>
str ing</w>
in ward
fact ors</w>
expl ore</w>
ab les</w>
whe ther</w>
ta king</w>
s ing
inclu ding</w>
posi tive</w>
phy si
p h</w>
en sure</w>
c k
av o
atur e</w>
wor k
tran s
ti cal</w>
ide a</w>
en ds</w>
d ec
e p
comm unity</w>
be f
bef ore</w>
alter na
ti cs</w>
s ity</w>
off er</w>
cu s</w>
con cise</w>
ch ec
be cause</w>
pat ter
n ed</w>
man ag
logi cal</w>
langu age</w>
is su
el s</w>
e st
be ha
ini ti
ili ties</w>
i es</w>
c ard
well -
str ate
pl ace</w>
devi ation</w>
de si
c all
beha vi
b le</w>
2 x</w>
under stand</w>
ri ght</w>
re vie
publi c</w>
h om
e vi
cor rect</w>
controll er</w>
re l
ob jec
nee ds</w>
nec ess
natur al</w>
mo d
in si
grou ps</w>
d ra
cl ass</w>
sta tisti
per form
or ing</w>
cont ext</w>
arra y</w>
are as</w>
y our
tr ue</w>
me a
le ad</w>
cur ren
sk ill
me ans</w>
ex c
cre ating</w>
ca re
at u
$ +
w ater</w>
us es</w>
ra ther</w>
lo ve</w>
fo cus</w>
c ru
c ing</w>
at or</w>
addi tionally</w>
si ze</w>
s li
go als</w>
fi le</w>
em s</w>
distribu tion</w>
bec om
as su
ter m</w>
s ci
ro le</w>
ques tion</w>
p lic
or der</w>
non -
kno w
int en
dig ital</w>
at ten
0 00</w>
$ controller</w>
th y</w>
se qu
retur ns</w>
par t
min d</w>
e ver
bal ance</w>
sp ace</w>
re vi
fo c
e ve</w>
dur ing</w>
differen ce</w>
custom ers</w>
comb in
cep t</w>
c ent
b a
ar ity</w>
ur e</w>
fur ther</w>
exp ec
du plic
uni ties</w>
sho w</w>
mar y</w>
so ci
re ad</w>
o per
hi m</w>
h er
fo re
f ect</w>
connec tion</w>
con di
co sts</w>
tu al</w>
ta kes</w>
sec ond</w>
la stly</w>
emplo ye
effici ent</w>
deci sion</w>
ac y</w>
st ant</w>
pers on</w>
oun d
me m
integ er</w>
effec tive</w>
d ro
conclu sion</w>
charac ters</w>
ch e
bet ter</w>
th er
some thing</w>
set ting</w>
sa ve</w>
nor m
con cer
ch il
b ri
sever al</w>
s wit
prof es
p er</w>
le vel</w>
l ed</w>
h and</w>
fiel d</w>
d ge</w>
cer tain</w>
ans wer</w>
y -
w al
p le
me an
m es</w>
loo king</w>
in d</w>
h ou
behavi or</w>
ag a
ac hi
your self</w>
wor king</w>
st ra
impro ve</w>
ag ra
ac tion</w>
ve y</w>
skill s</w>
pro per
l ast</w>
re mo
qu i
progra m</w>
profes sion
prob ability</w>
pre mi
li k
ener gy</w>
de n</w>
comm on</w>
an ts</w>
tiv es</w>
ref l
po se</w>
of f</w>
mi s
memb er</w>
know le
etri c</w>
ac cur
v ative</w>
t le</w>
t el
s on</w>
ro w</w>
ent ly</w>
determin e</w>
an ti
resul ts</w>
popu lation</w>
lo gy</w>
j av
it self</w>
in ste
import ant</w>
g r
fri end</w>
der i
cru cial</w>
chang es</w>
calcul ate</w>
sa mple</w>
par t</w>
opport unities</w>
ment al</w>
inste ad</w>
contin u
comm uni
ab or
sel f
relationshi ps</w>
r y</w>
pr acti
pl ac
o d</w>
le ast</w>
in flu
f lo
dat as
c at
v en
tiv ity</w>
tech ni
sit u
ser vi
ques tions</w>
p m
larg e</w>
inter pre
de tail
adv an
vari able</w>
t one</w>
sh ap
p t</w>
on i
loo k</w>
li st
kno wn</w>
experi ences</w>
et y</w>
consider ing</w>
a red</w>
ye ar</w>
vari ables</w>
tra vel</w>
temp er
t est</w>
priori ti
li sh</w>
inde x</w>
h y
est ab
dis co
ben ef
b ra
$\ pm
tas k</w>
st ri
sco res</w>
sa id</w>
re ach</w>
posi tion</w>
li cations</w>
l ong</w>
insi ghts</w>
heal th</w>
h ar
coll ec
- 1</w>
vi su
vari ous</w>
ta g
org ani
gre at</w>
fin ally</w>
engag ing</w>
d y</w>
controller@ get
care er</w>
ari es</w>
al ways</w>
w ard</w>
si mil
re li
ke ep</w>
hi gh</w>
el ement</w>
d re
com es</w>
ci r
choo se</w>
c ate</w>
bu l
as ser
4 5</w>
st re
st o
s or</w>
re gi
mat eri
h and
g ge
foo t</w>
fami ly</w>
devel o
develo p</w>
si c</w>
self -
our s</w>
op e</w>
m ing</w>
li gh
l st</w>
g o</w>
g ate</w>
el ec
e ar
e -
d a
custom er</w>
ap pe
1 0
ter ms</w>
suc cess
struc ture</w>
job card
ha ving</w>
ha pp
er y</w>
du e</w>
con f
all s</w>
1 8</w>
we e
su gge
read y</w>
r ate</w>
po wer</w>
mi c</w>
l it
fi cation</w>
feel ing</w>
ent al</w>
dist in
cor rela
b it</w>
ver sion</w>
us er</w>
ta tions</w>
suc cess</w>
st y
shi p</w>
par am
inst ance</w>
g ate
environ ment</w>
e ts</w>
develop ment</w>
cli mb
chang ed</w>
w ing</w>
to o</w>
ri s
lik ely</w>
l and</w>
im um</w>
go t</w>
go d</w>
d ate</w>
con ta
coll abor
b ar
_ _
ver se</w>
stud y</w>
res our
pro ject</w>
op en</w>
necess ary</w>
lo t</w>
line ar</w>
l ab
h ours</w>
fun c
f requ
b at</w>
as k</w>
add ress</w>
ul tim
ste p</w>
res sion</w>
profession al</w>
patter ns</w>
l ong
emo tional</w>
con fi
comple x</w>
avo id</w>
t al
s qu
pro mo
pl an</w>
multi ple</w>
lin es</w>
j our
es p
as p
= =</w>
wr it
w om
ultim ately</w>
the ref
theref ore</w>
te am</w>
pro g
pri me</w>
lo cal</w>
hou se</w>
conver s
cont ribu
ac c
a k
y ed</w>
ste ps</w>
st ate
sing le</w>
out li
gener al</w>
fri ends</w>
fe ed
feed back</w>
evi dence</w>
ever y
es tim
e very</w>
ch es</w>
ch a
c la
sh ed</w>
re member</w>
provi des</w>
mu ch</w>
mo sp
gu e</w>
equ al</w>
do m</w>
deci sions</w>
cl arity</w>
b lo
at mosp
a si
rele v
read er</w>
per spec
ou ra
or d
ni ght</w>
na vi
l s</w>
k ed</w>
incre ase</w>
h en
f ree</w>
f ra
ser ies</w>
sal es</w>
par agra
min i
metho ds</w>
g en
en ing</w>
en ding</w>
ag es</w>
ty pi
temper ature</w>
t arg
su gg
star ting</w>
si t</w>
sent ences</w>
roo m</w>
phr ase</w>
per i
natur e</w>
ma il</w>
fe atu
ca ses</w>
ar ing</w>
us ers</w>
stud ents</w>
stud ent</w>
si mple</w>
sa ti
person al</w>
per c
ce i
low er</w>
int ro
individu als</w>
in ed</w>
impor t</w>
grou n
di t</w>
di rec
dep end
datas et</w>
b ack
au di
z es</w>
z er
wei gh
tri p</w>
thin king</w>
pre hen
out put</w>
on line</w>
it ems</w>
g oo
fac t</w>
ar ti
er _
de tec
correla tion</w>
cor por
col um
ch ing</w>
auth or</w>
al -
y es</w>
se par
revi sed</w>
produ c
perform ance</w>
ma kes</w>
ga in</w>
form ed</w>
fac e</w>
expl oring</w>
deri vative</w>
cont ent</w>
appro x
al lowing</w>
ac cess</w>
1 7</w>
v al</w>
tech no
t op
sp i
simp li
premi ses</w>
ple ase</w>
ne y</w>
knowle dge</w>
form ul
fi l
fi ed</w>
employe e</w>
el se</w>
e m</w>
de sign
d y
cul ture</w>
cor respon
convers ation</w>
com prehen
cli m
cho ice</w>
a il
a i</w>
us ti
mo de
in d
hel ps</w>
g es</w>
ent ed</w>
en tation</w>
climb s</w>
bre ak</w>
boo k</w>
bo dy</w>
ac tive</w>
x ^2</w>
w at
vehicle -
thou ghts</w>
sour ce</w>
sh or
sc al
ra di
pri mary</w>
po li
pat h</w>
outli ers</w>
m us
lear n</w>
gn i
ev ents</w>
ec ts</w>
e dit</w>
d ent</w>
co gni
benef its</w>
as ing</w>
1 9</w>
wh y</w>
war ds</w>
v ol
t _
sp or
p as
sc en
re gu
physi cal</w>
paragra ph</w>
mode l</w>
le ft</w>
j usti
fa il
en jo
de ep
coun t</w>
comm it
categ ories</w>
c ra
buil d</w>
an ced</w>
yth ing</w>
ve ment</w>
t ou
st ren
stren g
solu tions</w>
re cei
p ass
or ity</w>
om s</w>
obser v
min u
m er
le _
e i
descri p
cour ses</w>
c el
b eli
atmosp here</w>
ad ding</w>
stru gg
sm all
relev ant</w>
provi ded</w>
p ast</w>
medi a</w>
in du
he ad</w>
expec ted</w>
di sp
di d</w>
curren t</w>
con tr
buil ding</w>
av ail
ar ds</w>
