<|endoftext|>
<|im_start|>
<|im_end|>
<|pad|>
!
"
""
")
",
".
":
">
#
##
$
%
&
'
'(
')
',
'.
':
']
(
("
('
()
():
();
()`
(\
)
)$
)(
))
),
).
)/
):
);
)^
)`
*
**
**:
+
++
,
,"
-
--
----
--------
->
.
."
.,
..
...
/
//
0
00
000
0000
05
1
10
100
11
12
13
14
15
16
17
18
19
2
20
22
23
24
25
3
30
33
4
40
45
5
50
6
60
64
7
75
8
80
9
99
:
:**
::
;
<
</
=
="
==
>
?
?"
@
A
AR
AT
B
C
CT
Ch
Con
D
E
ER
Error
Ex
F
G
H
I
IN
In
J
K
L
LE
M
N
O
ON
P
Q
R
RE
S
ST
St
T
The
U
V
W
X
Y
You
Z
[
['
\
]
])
],
].
^
^(
^{
_
__
_{
_{\
`
`,
`.
``
```
a
ab
abel
abilities
ability
able
ables
ably
abor
ac
ace
aced
aces
ach
ached
aches
aching
acies
ack
act
action
actions
acy
ad
add
ade
adem
adr
af
aff
ag
age
aged
ager
ages
aging
agn
agon
agonist
agraph
ah
aign
ail
ailed
ain
air
ak
ake
akes
aking
aks
al
ale
ales
alf
alind
alindrome
aling
ality
alk
all
alle
alls
ally
als
alse
alth
alue
alueError
aly
am
amb
ambda
ame
amed
ames
amet
amp
ample
an
ance
anced
ances
ancial
ancing
and
ane
ang
ange
anged
angle
angu
ank
ann
ans
ant
ants
any
ap
apan
ape
app
append
aps
apt
ar
arah
arc
arch
ard
ards
are
ared
arent
arer
ares
arg
arget
ari
aries
arily
aring
aris
arity
ark
arm
arr
array
arrow
ars
art
arth
ary
as
asc
ase
ased
ases
ash
asing
ason
asons
ass
assert
ast
aste
astic
astly
at
ata
atable
atch
ate
ated
ateg
ately
ater
ates
atform
ath
ather
atic
ating
ation
ational
ations
atisf
ative
atives
ativity
ator
ators
atory
ats
atter
atural
ature
atures
au
augh
ault
aur
ause
aut
av
ava
ave
aves
aving
avor
aw
ax
ay
ays
az
b
back
ban
based
bb
be
being
ber
bers
bit
ble
bo
bol
bon
bra
bs
by
c
cal
care
case
cast
cc
ccess
ce
ced
ceed
cent
cept
ception
ces
cess
ch
chan
char
ched
ches
chn
chool
ci
cial
cient
cing
cise
ck
cknow
cl
class
co
col
com
come
comes
con
conom
cos
count
cript
ct
ction
ctions
ctor
cul
cy
d
da
data
date
day
dd
ddition
dditionally
de
def
dent
der
dict
dition
do
down
du
duct
e
ead
ean
ear
earch
ec
ect
ection
ed
edi
ee
eed
ees
ef
eff
eg
ek
eks
el
ele
ell
ellig
ello
els
elt
em
ember
emember
empt
ems
en
enc
ence
enced
ences
encies
encing
ency
end
ended
endent
ending
ends
ened
eng
enge
ength
ening
ens
ense
ension
ensity
ent
ental
ential
ention
ently
ents
enue
ep
eper
equ
er
era
eral
erate
ere
ered
erest
erg
ergy
erial
ering
erm
ern
erns
ero
err
ers
ership
ert
ertain
erv
erve
ery
es
esp
ess
est
ested
ests
et
eth
ethod
etic
etime
eting
ets
ety
eue
ever
ew
ewrite
ex
ext
ey
f
face
fact
fect
fer
fere
ference
ferences
ff
ffect
ffee
ffic
file
fl
foot
for
fore
form
fort
frac
friend
ft
fter
ful
fully
g
gan
ge
gebra
ged
gen
ger
ges
gest
get
gether
gg
ggest
gh
gin
ging
gment
go
gor
gorithm
ground
gs
h
haps
hat
he
head
heck
hed
hel
hemat
hen
hens
hentic
her
here
hers
hes
hesis
hest
hich
hile
hip
his
ho
hold
holders
hood
hor
i
ia
ial
ialog
ialogue
ian
iar
iation
ib
ibilities
ibility
ible
ibly
ibr
ic
ical
ically
ice
ices
ich
ici
icial
iciency
icient
icing
icit
ick
icle
icles
icro
ics
ict
iction
icult
id
idd
idden
iddle
ide
idence
ident
ider
ides
ids
idth
ie
ied
ield
ience
ient
ients
ier
ies
iet
iety
ieve
iew
if
ife
ific
ifically
ification
ified
ifies
ift
iful
ify
ifying
ig
igate
igation
igh
ighb
ight
ights
ign
ik
ike
il
ilar
ild
ile
iled
iles
ilit
ilities
ility
ill
illed
ills
ilt
ily
im
imal
imate
imately
ime
imens
iment
imes
imin
imize
import
imum
in
inal
inally
inary
ination
inations
inc
ince
inci
inct
ind
index
ine
ined
ines
iness
ing
ings
ining
ink
inking
input
ins
inst
int
inter
ints
io
iod
ion
ional
ions
ior
ios
ious
ip
ipment
ips
iqu
ique
iques
ir
irc
ird
ire
ired
ires
iring
irm
iron
irst
irt
irtual
is
ise
ised
ises
isf
ish
ished
ising
ision
isions
ism
isms
iss
ist
istic
istics
ists
it
ital
itation
itch
ite
ited
ites
ith
ither
ithm
ities
iting
ition
itions
itive
itle
its
itud
itude
ity
ium
ius
iv
ival
ive
ived
ively
iven
iveness
ivers
iversity
ives
ivid
ividual
iving
ivity
ix
iz
ization
izations
ize
ized
izes
izing
j
ject
joy
just
k
ke
ken
kes
key
king
known
ks
l
land
lated
lation
ld
le
lear
lease
lect
lection
led
ledge
leep
left
lem
length
ler
les
less
let
lev
lex
lf
li
lic
lict
lier
liers
life
light
lights
like
line
lines
ling
lish
lished
list
ll
lling
llow
lo
load
log
ls
lt
ltimately
lu
lud
lude
lus
lusive
ly
lying
m
ma
making
man
mar
mat
math
max
mb
me
med
ment
ments
mer
meric
met
min
ming
miss
mit
mod
mon
more
mosp
most
ms
my
n
name
nce
nces
nd
nder
ndom
ne
nect
ner
ness
new
ney
ng
ning
nomial
not
nov
now
nown
ns
nt
nter
ntic
num
numb
numbers
o
ob
obal
oc
ocation
ock
ocus
od
ode
odes
ody
oes
of
off
og
ogn
ograph
oh
ohn
oice
oid
oin
oint
ol
old
olog
ological
ologies
ology
olute
olution
olve
olving
om
omain
ome
omen
omes
omet
omial
omin
omm
ommod
oms
on
ond
one
ones
oney
ong
ons
onse
onsider
onstr
ont
oo
ood
ook
ooking
ooks
ool
oose
oot
op
ope
oph
ople
ops
opt
or
oration
ord
ordin
ording
ore
ored
orem
orical
ories
oring
ork
orld
orm
orn
ors
ort
orts
ory
os
ose
osed
osing
osp
oss
ost
ot
otal
ote
oth
other
ots
ott
ou
oub
ouble
oud
ough
ould
oun
ound
ount
our
oura
ource
ources
ours
ous
ouse
out
outh
ov
ove
over
overy
ow
ower
own
ows
ox
oy
oyal
p
par
part
path
pe
pec
pecial
pecially
pect
pected
pelling
per
pers
ph
phas
phr
pir
pl
place
plain
play
ple
plement
ples
plic
plit
ploy
ply
point
por
port
pos
pose
pot
pp
pped
pper
pping
pport
pportun
pr
pre
print
pro
ps
pt
ption
ptions
pty
put
py
python
q
qrt
qu
quence
quences
r
ra
rac
ract
racy
rad
ral
ram
rame
rap
raph
rate
rated
ration
ray
re
read
ready
ream
reat
reate
rect
red
ree
reen
rees
ren
rent
res
resent
resents
resh
resp
respond
ress
ression
result
ret
ri
rib
ribut
ric
rics
rid
riend
ries
rig
right
ring
ript
rit
rite
rix
ro
rodu
roduct
rol
rom
rome
ron
ront
rop
ror
ross
rou
rough
round
roup
row
rror
rt
ru
rue
ry
s
sc
score
se
sec
sel
self
selves
ser
set
sh
side
sing
size
so
sole
son
sort
sp
spect
ss
st
stand
stem
step
ster
str
string
stru
struct
struction
su
sub
sum
sw
t
tain
tal
te
ted
ten
ter
term
tern
ternal
ternative
terns
ters
test
text
th
the
ther
tic
ties
time
ting
tle
to
ton
tr
tract
ts
tt
ty
type
u
uable
ual
ually
uation
uations
ub
ublic
uc
uck
uct
ud
ue
ues
uff
ug
ugg
uild
ul
ular
ulate
ulation
ulations
ule
ules
ull
ult
uly
um
umb
ume
ument
uments
ump
un
unch
unction
und
une
up
ur
uracy
ural
ure
ured
ures
uring
urity
urn
uro
urs
urther
urthermore
ury
us
use
ush
uss
ust
ustom
ut
ute
utes
uth
ution
utions
v
val
value
values
ve
ved
vel
velop
ven
vent
ver
verage
verall
vern
vers
verse
vert
very
ves
vey
veys
vide
view
ving
void
w
ward
wards
ware
way
ways
we
wed
ween
whel
where
wise
wn
wor
word
words
work
world
writ
writing
x
xt
y
yc
year
ying
yle
ym
yn
ynam
yond
ype
ys
ysis
ystem
yth
ything
ython
z
ze
zz
{
{\
|
}
}$
},
}\
}{
}}
~
¡
¢
£
¤
¥
¦
§
¨
©
ª
«
¬
®
¯
°
±
²
³
´
µ
¶
·
¸
¹
º
»
¼
½
¾
¿
À
Á
Â
Ã
Ã©
Ä
Å
Æ
Ç
È
É
Ê
Ë
Ì
Í
Î
Ï
ÏĢ
Ð
Ñ
Ò
Ó
Ô
Õ
Ö
×
Ø
Ù
Ú
Û
Ü
Ý
Þ
ß
à
á
â
âĢ
âĢĻ
âĢĻs
âĢĿ
âĪ
ã
ä
å
æ
ç
è
é
ê
ë
ì
í
î
ï
ð
ðŁ
ñ
ò
ó
ô
õ
ö
÷
ø
ù
ú
û
ü
ý
þ
ÿ
Ā
ā
Ă
ă
Ą
ą
Ć
ć
Ĉ
ĉ
ĉĉ
Ċ
Ċ"
Ċ#
Ċ(
Ċ*
Ċ**
Ċ-
Ċ1
Ċ2
Ċ3
Ċ4
Ċ5
Ċ6
Ċ7
ĊA
ĊAdditionally
ĊAl
ĊAlternative
ĊAlternatively
ĊAn
ĊAnother
ĊAs
ĊB
ĊBest
ĊBy
ĊC
ĊCan
ĊConsider
ĊD
ĊE
ĊEm
ĊEx
ĊF
ĊFinally
ĊFirst
ĊFor
ĊG
ĊGiven
ĊH
ĊHere
ĊHow
ĊHowever
ĊI
ĊIf
ĊIm
ĊIn
ĊIt
ĊJ
ĊL
ĊLastly
ĊLet
ĊM
ĊN
ĊNext
ĊNow
ĊO
ĊOn
ĊOne
ĊOverall
ĊP
ĊPro
ĊR
ĊRemember
ĊS
ĊSince
ĊSo
ĊSt
ĊT
ĊTh
ĊThe
ĊThere
ĊTherefore
ĊThese
ĊThis
ĊTo
ĊU
ĊUltimately
ĊW
ĊWe
ĊWhat
ĊWhen
ĊWrite
ĊY
ĊYou
ĊYour
Ċ```
Ċassert
Ċdef
Ċf
Ċimport
Ċprint
Ċ|
Ċ}
ċ
Č
č
čĊ
čĊĉ
čĊĉĉ
čĊč
čĊčĊĠĠĠ
čĊčĊĠĠĠĠĠĠĠ
čĊĠ
čĊĠĠ
čĊĠĠĠ
čĊĠĠĠĠ
čĊĠĠĠĠĠ
čĊĠĠĠĠĠĠĠ
čĊĠĠĠĠĠĠĠĠĠĠĠ
čĊĠĠĠĠĠĠĠĠĠĠĠĠ
čĊĠĠĠĠĠĠĠĠĠĠĠĠĠĠĠ
čĊĠĠĠĠĠĠĠĠĠĠĠĠĠĠĠĠĠĠĠ
čĊĠĠĠĠĠĠĠĠĠĠĠĠĠĠĠĠĠĠĠĠ
Ď
ď
Đ
đ
Ē
ē
Ĕ
ĕ
Ė
ė
Ę
ę
Ě
ě
Ĝ
ĝ
Ğ
ğ
Ġ
Ġ"
Ġ"""
Ġ#
Ġ$
Ġ$\
Ġ%
Ġ&
Ġ'
Ġ(
Ġ*
Ġ**
Ġ+
Ġ+=
Ġ-
Ġ.
Ġ...
Ġ/
Ġ//
Ġ0
Ġ1
Ġ10
Ġ100
Ġ11
Ġ12
Ġ13
Ġ14
Ġ15
Ġ16
Ġ17
Ġ18
Ġ19
Ġ2
Ġ20
Ġ200
Ġ21
Ġ24
Ġ25
Ġ3
Ġ30
Ġ4
Ġ40
Ġ5
Ġ50
Ġ6
Ġ60
Ġ7
Ġ8
Ġ80
Ġ9
Ġ90
Ġ:
Ġ<
Ġ<<
Ġ=
Ġ==
Ġ>
ĠA
ĠAI
ĠAdd
ĠAdditionally
ĠAl
ĠAlex
ĠAmeric
ĠAn
ĠAnd
ĠAr
ĠAre
ĠAs
ĠAt
ĠB
ĠBe
ĠBut
ĠBy
ĠC
ĠCal
ĠCan
ĠCh
ĠChanged
ĠCl
ĠCom
ĠCon
ĠConsider
ĠD
ĠDe
ĠDo
ĠDr
ĠE
ĠEach
ĠEarth
ĠEm
ĠEmily
ĠEn
ĠEng
ĠEnglish
ĠEx
ĠF
ĠFalse
ĠFor
ĠG
ĠH
ĠHe
ĠHere
ĠHow
ĠHowever
ĠI
ĠIf
ĠIm
ĠIn
ĠInc
ĠInd
ĠInst
ĠInstead
ĠInt
ĠIs
ĠIt
ĠJ
ĠJava
ĠJohn
ĠK
ĠL
ĠLet
ĠM
ĠMake
ĠMay
ĠMy
ĠN
ĠNew
ĠNone
ĠNow
ĠO
ĠOn
ĠOne
ĠOr
ĠOut
ĠOutput
ĠP
ĠPer
ĠPl
ĠPro
ĠPython
ĠQ
ĠR
ĠRe
ĠRes
ĠRewrite
ĠS
ĠSc
ĠSe
ĠSh
ĠShe
ĠSim
ĠSince
ĠSo
ĠSome
ĠSp
ĠSt
ĠT
ĠTh
ĠThat
ĠThe
ĠThen
ĠThere
ĠTherefore
ĠThese
ĠThey
ĠThis
ĠTo
ĠTrue
ĠU
ĠUS
ĠUn
ĠUse
ĠUsing
ĠV
ĠW
ĠWe
ĠWhat
ĠWhen
ĠWhile
ĠWith
ĠX
ĠY
ĠYou
ĠYour
ĠZ
Ġ[
Ġ[]
Ġ\
Ġ_
Ġ`
Ġa
Ġab
Ġability
Ġable
Ġabout
Ġabove
Ġabs
Ġabsolute
Ġac
Ġacadem
Ġacc
Ġaccept
Ġaccess
Ġaccom
Ġaccording
Ġaccount
Ġaccur
Ġaccuracy
Ġaccurate
Ġach
Ġachie
Ġachieve
Ġacknow
Ġacross
Ġact
Ġaction
Ġactions
Ġactiv
Ġactive
Ġactivities
Ġactivity
Ġactual
Ġactually
Ġad
Ġadapt
Ġadd
Ġadded
Ġadding
Ġaddition
Ġadditional
Ġaddress
Ġadjust
Ġadv
Ġadvance
Ġadvanced
Ġadvant
Ġadvice
Ġaf
Ġaff
Ġaffect
Ġafter
Ġag
Ġagain
Ġagainst
Ġage
Ġagree
Ġaim
Ġair
Ġal
Ġalgebra
Ġalgorithm
Ġalign
Ġall
Ġallow
Ġallowing
Ġallows
Ġalong
Ġalready
Ġalso
Ġalternative
Ġalways
Ġam
Ġamong
Ġamount
Ġan
Ġanal
Ġanaly
Ġanalysis
Ġanalyz
Ġanalyze
Ġanalyzing
Ġancient
Ġand
Ġang
Ġann
Ġanother
Ġansw
Ġanswer
Ġant
Ġanx
Ġanxiety
Ġany
Ġanything
Ġapp
Ġappe
Ġappear
Ġappears
Ġapplic
Ġapplication
Ġapplications
Ġapply
Ġappre
Ġappreci
Ġappro
Ġapproach
Ġapproaches
Ġapprox
Ġapproximately
Ġar
Ġarch
Ġare
Ġarea
Ġareas
Ġarg
Ġargument
Ġarguments
Ġaround
Ġarr
Ġarrange
Ġarray
Ġart
Ġas
Ġask
Ġaspect
Ġaspects
Ġass
Ġassert
Ġassess
Ġassign
Ġassist
Ġassistant
Ġassoc
Ġassoci
Ġassociated
Ġassum
Ġassumptions
Ġat
Ġatmosp
Ġatmosphere
Ġatt
Ġattack
Ġattempt
Ġattend
Ġattention
Ġattract
Ġattribut
Ġaud
Ġaudience
Ġaut
Ġauthentic
Ġauthor
Ġautom
Ġav
Ġavail
Ġavailable
Ġaverage
Ġavoid
Ġaw
Ġaware
Ġaway
Ġb
Ġback
Ġbackground
Ġbal
Ġbalance
Ġball
Ġbar
Ġbas
Ġbase
Ġbased
Ġbasic
Ġbat
Ġbe
Ġbeaut
Ġbeautiful
Ġbec
Ġbecause
Ġbecome
Ġbecomes
Ġbeen
Ġbefore
Ġbegin
Ġbeh
Ġbehav
Ġbehavior
Ġbehind
Ġbeing
Ġbel
Ġbelie
Ġbelieve
Ġbelow
Ġben
Ġbenef
Ġbenefits
Ġbest
Ġbet
Ġbetter
Ġbetween
Ġbeyond
Ġbi
Ġbiases
Ġbig
Ġbinary
Ġbit
Ġbl
Ġblack
Ġblock
Ġblood
Ġblue
Ġbo
Ġbody
Ġbook
Ġbooks
Ġboth
Ġbott
Ġbound
Ġboundaries
Ġbox
Ġbr
Ġbra
Ġbrand
Ġbre
Ġbreak
Ġbreat
Ġbreath
Ġbri
Ġbring
Ġbro
Ġbroad
Ġbu
Ġbud
Ġbudget
Ġbuild
Ġbuilding
Ġbuilt
Ġbul
Ġbullet
Ġbus
Ġbusiness
Ġbusinesses
Ġbut
Ġby
Ġc
Ġca
Ġcal
Ġcalcul
Ġcalculate
Ġcalculated
Ġcall
Ġcalled
Ġcamp
Ġcampaign
Ġcan
Ġcand
Ġcannot
Ġcap
Ġcapt
Ġcar
Ġcard
Ġcare
Ġcareer
Ġcarefully
Ġcase
Ġcases
Ġcat
Ġcatch
Ġcateg
Ġcaus
Ġcause
Ġcell
Ġcent
Ġcenter
Ġcentral
Ġcertain
Ġch
Ġchall
Ġchalleng
Ġchallenge
Ġchallenges
Ġchallenging
Ġchance
Ġchang
Ġchange
Ġchanged
Ġchanges
Ġchann
Ġchar
Ġcharact
Ġcharacter
Ġcharacteristics
Ġcharacters
Ġchart
Ġche
Ġchec
Ġcheck
Ġchecks
Ġchild
Ġchildren
Ġcho
Ġchoice
Ġchoose
Ġcirc
Ġcircle
Ġcircum
Ġcities
Ġcity
Ġcl
Ġcla
Ġclaim
Ġclarity
Ġclass
Ġcle
Ġclean
Ġclear
Ġclim
Ġclimate
Ġclimb
Ġclimbs
Ġclos
Ġclose
Ġclosely
Ġco
Ġcode
Ġcoeff
Ġcoefficient
Ġcoffee
Ġcoin
Ġcol
Ġcoll
Ġcollabor
Ġcollaboration
Ġcolle
Ġcolleag
Ġcollect
Ġcollection
Ġcolor
Ġcolum
Ġcom
Ġcomb
Ġcombination
Ġcome
Ġcomes
Ġcomfort
Ġcomm
Ġcommit
Ġcommon
Ġcommun
Ġcommunic
Ġcommunicate
Ġcommunication
Ġcommunity
Ġcomp
Ġcompan
Ġcompanies
Ġcompany
Ġcompare
Ġcompared
Ġcompelling
Ġcompet
Ġcomple
Ġcomplete
Ġcomplex
Ġcomplexity
Ġcompon
Ġcomponents
Ġcompre
Ġcomprehens
Ġcomprehensive
Ġcomput
Ġcomputer
Ġcon
Ġconc
Ġconcept
Ġconcepts
Ġconcern
Ġconcerns
Ġconcise
Ġconclus
Ġconclusion
Ġconclusions
Ġcond
Ġcondition
Ġconditions
Ġconduct
Ġconf
Ġconfidence
Ġconfirm
Ġconflict
Ġconnect
Ġconnection
Ġconnections
Ġcons
Ġconse
Ġconsequences
Ġconsid
Ġconsider
Ġconsidered
Ġconsidering
Ġconsist
Ġconsistent
Ġconst
Ġconstant
Ġconstruct
Ġconsum
Ġcont
Ġcontact
Ġcontain
Ġcontains
Ġcontent
Ġcontext
Ġcontin
Ġcontinu
Ġcontinue
Ġcontinuous
Ġcontra
Ġcontrast
Ġcontribut
Ġcontribute
Ġcontrol
Ġconver
Ġconvers
Ġconversation
Ġconvert
Ġconvey
Ġcoo
Ġcop
Ġcor
Ġcore
Ġcorre
Ġcorrect
Ġcorrelation
Ġcorrespond
Ġcorresponding
Ġcos
Ġcost
Ġcosts
Ġcould
Ġcount
Ġcounter
Ġcountry
Ġcour
Ġcourse
Ġcover
Ġcr
Ġcra
Ġcraft
Ġcre
Ġcreate
Ġcreated
Ġcreates
Ġcreating
Ġcreative
Ġcred
Ġcrit
Ġcritical
Ġcross
Ġcru
Ġcrucial
Ġcry
Ġcult
Ġcultural
Ġculture
Ġcur
Ġcurrent
Ġcustom
Ġcustomer
Ġcustomers
Ġcut
Ġcyc
Ġd
Ġda
Ġdaily
Ġdam
Ġdark
Ġdat
Ġdata
Ġdatas
Ġdataset
Ġdate
Ġday
Ġdays
Ġde
Ġdead
Ġdeb
Ġdec
Ġdecision
Ġdecisions
Ġdecre
Ġded
Ġdedic
Ġdeep
Ġdeeper
Ġdef
Ġdefin
Ġdefine
Ġdefined
Ġdeg
Ġdegree
Ġdel
Ġdeli
Ġdelic
Ġdem
Ġdemand
Ġdemonstr
Ġden
Ġdep
Ġdepart
Ġdepending
Ġdepth
Ġder
Ġderiv
Ġderivative
Ġdes
Ġdesc
Ġdescrib
Ġdescribe
Ġdescript
Ġdesign
Ġdesigned
Ġdesired
Ġdest
Ġdet
Ġdetail
Ġdetailed
Ġdetails
Ġdetect
Ġdeterm
Ġdetermine
Ġdev
Ġdevelop
Ġdeveloped
Ġdeveloping
Ġdevelopment
Ġdevi
Ġdeviation
Ġdi
Ġdialogue
Ġdiction
Ġdictionary
Ġdid
Ġdif
Ġdiff
Ġdiffere
Ġdifference
Ġdifferences
Ġdifferent
Ġdifficult
Ġdig
Ġdigital
Ġdire
Ġdirect
Ġdirection
Ġdirectly
Ġdis
Ġdisc
Ġdiscuss
Ġdise
Ġdisease
Ġdisplay
Ġdist
Ġdistance
Ġdistinct
Ġdistribut
Ġdistribution
Ġdiv
Ġdiverse
Ġdivid
Ġdivide
Ġdivided
Ġdivis
Ġdo
Ġdoc
Ġdocument
Ġdoes
Ġdoesn
Ġdoing
Ġdon
Ġdone
Ġdoor
Ġdouble
Ġdown
Ġdr
Ġdra
Ġdraw
Ġdri
Ġdrive
Ġdriving
Ġdu
Ġdue
Ġduplic
Ġduring
Ġdynam
Ġdynamic
Ġe
Ġeach
Ġear
Ġearlier
Ġearly
Ġeas
Ġeasier
Ġeasy
Ġeconom
Ġeconomic
Ġed
Ġedit
Ġediting
Ġeduc
Ġeducation
Ġeff
Ġeffect
Ġeffective
Ġeffectively
Ġeffects
Ġefficient
Ġeffort
Ġefforts
Ġeither
Ġel
Ġele
Ġelect
Ġelement
Ġelements
Ġelse
Ġem
Ġemail
Ġemerg
Ġemot
Ġemotional
Ġemotions
Ġemphas
Ġemploy
Ġemployee
Ġemployees
Ġempty
Ġen
Ġenc
Ġencount
Ġencoura
Ġencourage
Ġend
Ġenergy
Ġeng
Ġengage
Ġengagement
Ġengaging
Ġengine
Ġenh
Ġenhance
Ġenjoy
Ġenough
Ġens
Ġensure
Ġensuring
Ġent
Ġenter
Ġentire
Ġenv
Ġenviron
Ġenvironment
Ġenvironmental
Ġequ
Ġequal
Ġequation
Ġequipment
Ġerr
Ġerror
Ġerrors
Ġes
Ġespecially
Ġess
Ġessay
Ġessential
Ġest
Ġestab
Ġestablish
Ġestim
Ġestimate
Ġet
Ġev
Ġeval
Ġevalu
Ġevaluate
Ġeven
Ġevent
Ġevents
Ġever
Ġevery
Ġeveryone
Ġeverything
Ġevidence
Ġex
Ġexact
Ġexactly
Ġexam
Ġexample
Ġexamples
Ġexc
Ġexcept
Ġexcited
Ġexec
Ġexer
Ġexercise
Ġexh
Ġexhib
Ġexist
Ġexisting
Ġexp
Ġexpand
Ġexpect
Ġexpectations
Ġexpected
Ġexpens
Ġexper
Ġexperi
Ġexperience
Ġexperiences
Ġexperiment
Ġexpert
Ġexpertise
Ġexpl
Ġexplain
Ġexplan
Ġexplanation
Ġexplicit
Ġexplore
Ġexploring
Ġexpon
Ġexpress
Ġexpression
Ġext
Ġextra
Ġextract
Ġextre
Ġextreme
Ġey
Ġeye
Ġeyes
Ġf
Ġfac
Ġface
Ġfact
Ġfactor
Ġfactors
Ġfail
Ġfair
Ġfall
Ġfallacy
Ġfalse
Ġfam
Ġfamil
Ġfamily
Ġfar
Ġfarm
Ġfasc
Ġfast
Ġfavor
Ġfe
Ġfeature
Ġfeatures
Ġfeed
Ġfeedback
Ġfeel
Ġfeeling
Ġfeelings
Ġfeels
Ġfeet
Ġfew
Ġfield
Ġfields
Ġfig
Ġfigure
Ġfil
Ġfile
Ġfin
Ġfinal
Ġfinancial
Ġfind
Ġfinding
Ġfindings
Ġfinds
Ġfire
Ġfirst
Ġfit
Ġfive
Ġfix
Ġfl
Ġflaw
Ġflex
Ġflo
Ġflow
Ġfo
Ġfocus
Ġfocused
Ġfocusing
Ġfollow
Ġfollowing
Ġfollows
Ġfood
Ġfoot
Ġfor
Ġfore
Ġform
Ġformal
Ġformat
Ġformul
Ġformula
Ġforward
Ġfound
Ġfoundation
Ġfour
Ġfra
Ġframe
Ġfre
Ġfree
Ġfrequ
Ġfrequency
Ġfresh
Ġfriend
Ġfriends
Ġfrom
Ġfu
Ġful
Ġfull
Ġfun
Ġfunction
Ġfunctions
Ġfund
Ġfundam
Ġfundamental
Ġfurther
Ġfut
Ġfuture
Ġg
Ġgain
Ġgame
Ġgard
Ġgarden
Ġgather
Ġge
Ġgen
Ġgener
Ġgeneral
Ġgenerally
Ġgenerate
Ġgeomet
Ġgeometric
Ġget
Ġgetting
Ġgive
Ġgiven
Ġgives
Ġgiving
Ġgl
Ġglobal
Ġgo
Ġgoal
Ġgoals
Ġgoing
Ġgood
Ġgot
Ġgovern
Ġgovernment
Ġgr
Ġgra
Ġgram
Ġgrammar
Ġgraph
Ġgreat
Ġgreater
Ġgreen
Ġgrou
Ġground
Ġgroup
Ġgroups
Ġgrow
Ġgrowth
Ġgu
Ġguid
Ġguidance
Ġguide
Ġh
Ġha
Ġhab
Ġhad
Ġhalf
Ġhand
Ġhandle
Ġhands
Ġhapp
Ġhappy
Ġhard
Ġharm
Ġhas
Ġhave
Ġhaving
Ġhe
Ġhead
Ġhealth
Ġhealthy
Ġhear
Ġheart
Ġheat
Ġheav
Ġheight
Ġhel
Ġhelp
Ġhelpful
Ġhelping
Ġhelps
Ġher
Ġhere
Ġhidden
Ġhig
Ġhigh
Ġhigher
Ġhighlight
Ġhighlights
Ġhighly
Ġhim
Ġhis
Ġhist
Ġhistorical
Ġhistory
Ġhold
Ġhome
Ġhon
Ġhonest
Ġhope
Ġhost
Ġhot
Ġhour
Ġhours
Ġhouse
Ġhow
Ġhum
Ġhuman
Ġhy
Ġhypot
Ġhypothesis
Ġi
Ġid
Ġide
Ġidea
Ġideas
Ġident
Ġidentify
Ġidentifying
Ġidentity
Ġif
Ġill
Ġillust
Ġim
Ġimag
Ġimage
Ġimm
Ġimmedi
Ġimmers
Ġimp
Ġimpact
Ġimpl
Ġimplement
Ġimplementation
Ġimplic
Ġimplications
Ġimplies
Ġimport
Ġimportance
Ġimportant
Ġimpro
Ġimprove
Ġimproved
Ġimprovement
Ġin
Ġinc
Ġinclud
Ġinclude
Ġincludes
Ġincluding
Ġincome
Ġincor
Ġincorpor
Ġincorporating
Ġincre
Ġincrease
Ġincreased
Ġincreases
Ġincreasing
Ġincred
Ġind
Ġindeed
Ġindep
Ġindependent
Ġindex
Ġindic
Ġindicate
Ġindicates
Ġindicating
Ġindividual
Ġindividuals
Ġindust
Ġindustry
Ġinf
Ġinfin
Ġinfinite
Ġinflu
Ġinfluence
Ġinform
Ġinformation
Ġinformed
Ġing
Ġinit
Ġiniti
Ġinitial
Ġinner
Ġinnov
Ġinnovative
Ġinput
Ġins
Ġinsight
Ġinsights
Ġinst
Ġinstance
Ġinstead
Ġint
Ġinteg
Ġinteger
Ġintegers
Ġintegral
Ġintent
Ġinter
Ġinteract
Ġinteractions
Ġinteractive
Ġinterest
Ġinterested
Ġinteresting
Ġinterests
Ġintern
Ġinterpre
Ġinterpret
Ġinterse
Ġinterv
Ġinterval
Ġinterview
Ġinto
Ġintrodu
Ġinv
Ġinvest
Ġinvol
Ġinvolve
Ġinvolved
Ġinvolves
Ġis
Ġiss
Ġissue
Ġissues
Ġit
Ġitem
Ġitems
Ġiter
Ġits
Ġitself
Ġj
Ġjob
Ġjour
Ġjourney
Ġjust
Ġk
Ġke
Ġkeep
Ġkey
Ġkeys
Ġkind
Ġknow
Ġknowledge
Ġknown
Ġl
Ġla
Ġlack
Ġland
Ġlandsc
Ġlangu
Ġlanguage
Ġlar
Ġlarge
Ġlarger
Ġlast
Ġlat
Ġlater
Ġlaunch
Ġlaw
Ġlay
Ġle
Ġlead
Ġleading
Ġlear
Ġlearn
Ġlearning
Ġleast
Ġleave
Ġleaving
Ġled
Ġleft
Ġleg
Ġlen
Ġlength
Ġless
Ġlet
Ġletter
Ġletters
Ġlevel
Ġlevels
Ġlibr
Ġlibrary
Ġlies
Ġlif
Ġlife
Ġlight
Ġlike
Ġlikely
Ġlim
Ġlimit
Ġlimited
Ġline
Ġlinear
Ġlines
Ġlink
Ġlist
Ġlists
Ġlit
Ġlittle
Ġlive
Ġlives
Ġliving
Ġlo
Ġloc
Ġlocal
Ġlocation
Ġlog
Ġlogic
Ġlogical
Ġlong
Ġlonger
Ġlook
Ġlooking
Ġloop
Ġloss
Ġlost
Ġlot
Ġlove
Ġlow
Ġlower
Ġm
Ġma
Ġmach
Ġmachine
Ġmade
Ġmag
Ġmagic
Ġmagn
Ġmain
Ġmaintain
Ġmaintaining
Ġmaj
Ġmajor
Ġmake
Ġmakes
Ġmaking
Ġman
Ġmanage
Ġmanagement
Ġmanager
Ġmanip
Ġmanner
Ġmany
Ġmar
Ġmark
Ġmarket
Ġmarketing
Ġmass
Ġmat
Ġmatch
Ġmaterial
Ġmaterials
Ġmath
Ġmathemat
Ġmathematical
Ġmathematics
Ġmatrix
Ġmatter
Ġmax
Ġmaximum
Ġmay
Ġme
Ġmean
Ġmeaning
Ġmeaningful
Ġmeans
Ġmeas
Ġmeasure
Ġmeasures
Ġmechan
Ġmed
Ġmedia
Ġmedian
Ġmedical
Ġmeet
Ġmeeting
Ġmem
Ġmembers
Ġmemory
Ġmen
Ġment
Ġmental
Ġmention
Ġmentioned
Ġmess
Ġmessage
Ġmet
Ġmethod
Ġmethods
Ġmetrics
Ġmid
Ġmiddle
Ġmight
Ġmill
Ġmin
Ġmind
Ġminimum
Ġminutes
Ġmis
Ġmiss
Ġmissing
Ġmist
Ġmit
Ġmix
Ġmo
Ġmod
Ġmode
Ġmodel
Ġmodels
Ġmodern
Ġmodule
Ġmom
Ġmoment
Ġmon
Ġmoney
Ġmonit
Ġmonth
Ġmonths
Ġmor
Ġmore
Ġmost
Ġmot
Ġmotiv
Ġmotivations
Ġmove
Ġmoving
Ġmu
Ġmuch
Ġmult
Ġmulti
Ġmultip
Ġmultiple
Ġmus
Ġmusic
Ġmust
Ġmy
Ġmyself
Ġmyst
Ġn
Ġname
Ġnamed
Ġnames
Ġnarr
Ġnarrative
Ġnatural
Ġnature
Ġnav
Ġnavigate
Ġne
Ġnear
Ġnecess
Ġnecessarily
Ġnecessary
Ġneed
Ġneeded
Ġneeds
Ġneg
Ġnegative
Ġneighb
Ġnet
Ġnetwork
Ġnever
Ġnew
Ġnext
Ġnight
Ġno
Ġnode
Ġnon
Ġnorm
Ġnormal
Ġnot
Ġnote
Ġnotice
Ġnoting
Ġnow
Ġnu
Ġnuanced
Ġnull
Ġnum
Ġnumb
Ġnumber
Ġnumbers
Ġnumer
Ġo
Ġob
Ġobject
Ġobjective
Ġobjects
Ġobs
Ġobserv
Ġobserved
Ġobtain
Ġocc
Ġodd
Ġof
Ġoff
Ġoffer
Ġoffering
Ġoffers
Ġoften
Ġold
Ġon
Ġonce
Ġone
Ġones
Ġonline
Ġonly
Ġop
Ġopen
Ġopening
Ġoper
Ġoperations
Ġopp
Ġopportun
Ġopportunities
Ġopportunity
Ġopt
Ġoptim
Ġoption
Ġoptions
Ġor
Ġord
Ġorder
Ġorgan
Ġorganization
Ġorganizations
Ġorig
Ġoriginal
Ġother
Ġothers
Ġour
Ġout
Ġoutcome
Ġoutcomes
Ġoutliers
Ġoutput
Ġoutside
Ġover
Ġoverall
Ġoverwhel
Ġown
Ġp
Ġpa
Ġpack
Ġpain
Ġpair
Ġpaper
Ġpar
Ġparagraph
Ġparamet
Ġparent
Ġpart
Ġpartic
Ġparticip
Ġparticular
Ġparticularly
Ġpartner
Ġparts
Ġpass
Ġpassion
Ġpast
Ġpat
Ġpath
Ġpatient
Ġpattern
Ġpatterns
Ġpay
Ġpe
Ġpeople
Ġper
Ġpercent
Ġpercentage
Ġperfect
Ġperform
Ġperformance
Ġperiod
Ġpers
Ġperson
Ġpersonal
Ġperspect
Ġperspective
Ġperspectives
Ġph
Ġphot
Ġphr
Ġphrase
Ġphrases
Ġphys
Ġphysical
Ġpict
Ġpie
Ġpiece
Ġpl
Ġplace
Ġplan
Ġplanning
Ġplant
Ġplants
Ġplatform
Ġplatforms
Ġplay
Ġplease
Ġplot
Ġplots
Ġpo
Ġpoint
Ġpoints
Ġpol
Ġpolic
Ġpolicy
Ġpoly
Ġpolynomial
Ġpop
Ġpopular
Ġpopulation
Ġport
Ġpos
Ġposition
Ġpositive
Ġposs
Ġpossible
Ġpost
Ġpot
Ġpotential
Ġpotentially
Ġpower
Ġpowerful
Ġpr
Ġpract
Ġpractical
Ġpractice
Ġpractices
Ġpre
Ġprec
Ġprecise
Ġpredict
Ġprefer
Ġpreferences
Ġprem
Ġpremises
Ġprep
Ġprepared
Ġpres
Ġpresence
Ġpresent
Ġpreserv
Ġpress
Ġpressure
Ġprev
Ġprevent
Ġprevious
Ġpri
Ġprice
Ġprices
Ġprim
Ġprimary
Ġprime
Ġprinci
Ġprint
Ġprior
Ġpriorit
Ġpriorities
Ġprioritize
Ġpriv
Ġprivate
Ġpro
Ġprob
Ġprobability
Ġproblem
Ġproblems
Ġprocess
Ġprocesses
Ġprodu
Ġproduce
Ġproduct
Ġproduction
Ġproducts
Ġprof
Ġprofess
Ġprofessional
Ġprog
Ġprogram
Ġprogramming
Ġprograms
Ġprogress
Ġproject
Ġprojects
Ġprom
Ġpromot
Ġpromote
Ġpron
Ġproper
Ġproperties
Ġproperty
Ġproport
Ġpropos
Ġprot
Ġprotect
Ġprov
Ġprovid
Ġprovide
Ġprovided
Ġprovides
Ġproviding
Ġpu
Ġpublic
Ġpur
Ġpurch
Ġpurpose
Ġput
Ġqu
Ġquadr
Ġquality
Ġquant
Ġquart
Ġquest
Ġquestion
Ġquestions
Ġquick
Ġquickly
Ġquite
Ġr
Ġra
Ġrad
Ġraise
Ġrandom
Ġrange
Ġrat
Ġrate
Ġrates
Ġrather
Ġratio
Ġre
Ġreach
Ġread
Ġreader
Ġreaders
Ġreading
Ġready
Ġreal
Ġreality
Ġreally
Ġreason
Ġreasoning
Ġrec
Ġrece
Ġrecent
Ġrecogn
Ġrecomm
Ġrecommend
Ġrecord
Ġrecurs
Ġred
Ġredu
Ġreduce
Ġreducing
Ġref
Ġrefine
Ġreflect
Ġreg
Ġregard
Ġregards
Ġregion
Ġregression
Ġregular
Ġrel
Ġrelated
Ġrelations
Ġrelationship
Ġrelationships
Ġrelative
Ġrelatively
Ġrelax
Ġrelev
Ġrelevant
Ġreli
Ġreliable
Ġrem
Ġremain
Ġremainder
Ġremaining
Ġremains
Ġremember
Ġremind
Ġremo
Ġremove
Ġrep
Ġrepe
Ġrephr
Ġrepl
Ġreplace
Ġreport
Ġrepresent
Ġrepresentation
Ġrepresented
Ġrepresents
Ġrequ
Ġrequire
Ġrequired
Ġrequirements
Ġrequires
Ġres
Ġrese
Ġresearc
Ġresearch
Ġresid
Ġreson
Ġresources
Ġresp
Ġrespect
Ġrespond
Ġrespons
Ġresponse
Ġresponsibilities
Ġrest
Ġrestaur
Ġrestaurant
Ġresult
Ġresulting
Ġresults
Ġret
Ġreturn
Ġreturns
Ġrev
Ġreve
Ġreveal
Ġrevenue
Ġreview
Ġrevised
Ġri
Ġrich
Ġright
Ġris
Ġrisk
Ġrisks
Ġro
Ġroad
Ġrob
Ġrole
Ġroom
Ġroot
Ġroots
Ġrout
Ġrow
Ġrule
Ġrules
Ġrun
Ġrunning
Ġs
Ġsa
Ġsaf
Ġsafe
Ġsafety
Ġsaid
Ġsal
Ġsalary
Ġsales
Ġsam
Ġsame
Ġsample
Ġsatisf
Ġsatisfaction
Ġsay
Ġsc
Ġscale
Ġscen
Ġscenari
Ġscenario
Ġscene
Ġsche
Ġschedu
Ġschedule
Ġschool
Ġscience
Ġscient
Ġscore
Ġscores
Ġse
Ġsearch
Ġseason
Ġsec
Ġsecond
Ġsect
Ġsection
Ġsecurity
Ġsee
Ġseeking
Ġseem
Ġseems
Ġseen
Ġselect
Ġself
Ġsens
Ġsense
Ġsent
Ġsentence
Ġsentences
Ġsepar
Ġseparate
Ġsequence
Ġser
Ġseries
Ġserv
Ġserve
Ġservice
Ġservices
Ġsess
Ġset
Ġsets
Ġsetting
Ġsever
Ġseveral
Ġsh
Ġshap
Ġshape
Ġshare
Ġshared
Ġsharing
Ġshe
Ġshift
Ġshort
Ġshould
Ġshow
Ġshows
Ġside
Ġsides
Ġsign
Ġsignific
Ġsignificance
Ġsignificant
Ġsignificantly
Ġsil
Ġsim
Ġsimilar
Ġsimpl
Ġsimple
Ġsimply
Ġsince
Ġsing
Ġsingle
Ġsit
Ġsituation
Ġsituations
Ġsix
Ġsize
Ġsk
Ġske
Ġskills
Ġsl
Ġsleep
Ġslight
Ġslightly
Ġslip
Ġslips
Ġslow
Ġsm
Ġsmall
Ġsmaller
Ġsmo
Ġsmooth
Ġsn
Ġsnail
Ġso
Ġsoc
Ġsocial
Ġsoft
Ġsoftware
Ġsol
Ġsolar
Ġsolution
Ġsolutions
Ġsolve
Ġsom
Ġsome
Ġsomeone
Ġsometh
Ġsomething
Ġsort
Ġsorted
Ġsound
Ġsounds
Ġsource
Ġsources
Ġsp
Ġspace
Ġspaces
Ġspe
Ġspeak
Ġspec
Ġspecial
Ġspecies
Ġspecific
Ġspecifically
Ġspeed
Ġspent
Ġspread
Ġsqu
Ġsquare
Ġst
Ġstack
Ġstaff
Ġstand
Ġstandard
Ġstart
Ġstarted
Ġstarting
Ġstat
Ġstate
Ġstatement
Ġstatements
Ġstates
Ġstatist
Ġstatistical
Ġstatistics
Ġstay
Ġstd
Ġste
Ġstep
Ġsteps
Ġstill
Ġstore
Ġstories
Ġstory
Ġstr
Ġstra
Ġstraight
Ġstrateg
Ġstrategies
Ġstrategy
Ġstre
Ġstream
Ġstreng
Ġstrength
Ġstrengths
Ġstress
Ġstri
Ġstring
Ġstrings
Ġstrong
Ġstruct
Ġstructure
Ġstructures
Ġstrugg
Ġstud
Ġstudent
Ġstudents
Ġstudy
Ġstyle
Ġsu
Ġsub
Ġsubject
Ġsubst
Ġsubtle
Ġsubtract
Ġsuccess
Ġsuccessful
Ġsuch
Ġsuff
Ġsuggest
Ġsuggestions
Ġsuggests
Ġsuit
Ġsuitable
Ġsum
Ġsumm
Ġsummary
Ġsun
Ġsuper
Ġsupp
Ġsupport
Ġsur
Ġsure
Ġsurface
Ġsurround
Ġsust
Ġsustain
Ġsustainable
Ġsw
Ġswe
Ġswitch
Ġsy
Ġsym
Ġsymbol
Ġsymmet
Ġsystem
Ġsystems
Ġt
Ġta
Ġtable
Ġtail
Ġtake
Ġtaken
Ġtakes
Ġtaking
Ġtal
Ġtalk
Ġtarget
Ġtas
Ġtask
Ġtasks
Ġtax
Ġte
Ġteam
Ġtechn
Ġtechnical
Ġtechniques
Ġtechnology
Ġtell
Ġtem
Ġtemper
Ġtemperature
Ġtend
Ġtension
Ġterm
Ġterms
Ġtest
Ġtesting
Ġtext
Ġth
Ġthan
Ġthat
Ġthe
Ġtheir
Ġthem
Ġthemselves
Ġthen
Ġtheorem
Ġtheory
Ġthere
Ġthese
Ġthey
Ġthing
Ġthings
Ġthink
Ġthinking
Ġthird
Ġthis
Ġthose
Ġthough
Ġthought
Ġthoughts
Ġthr
Ġthree
Ġthrough
Ġthroughout
Ġtim
Ġtime
Ġtimes
Ġtitle
Ġto
Ġtoday
Ġtogether
Ġtone
Ġtoo
Ġtool
Ġtools
Ġtop
Ġtopic
Ġtotal
Ġtou
Ġtouch
Ġtour
Ġtowards
Ġtown
Ġtr
Ġtra
Ġtrack
Ġtradition
Ġtraditional
Ġtraffic
Ġtraining
Ġtrans
Ġtransform
Ġtransition
Ġtransport
Ġtransportation
Ġtravel
Ġtre
Ġtreat
Ġtreatment
Ġtree
Ġtrend
Ġtrends
Ġtri
Ġtriangle
Ġtrip
Ġtrue
Ġtruly
Ġtrust
Ġtruth
Ġtry
Ġtrying
Ġtu
Ġturn
Ġtw
Ġtwo
Ġty
Ġtyp
Ġtype
Ġtypes
Ġtypically
Ġu
Ġultimately
Ġun
Ġunc
Ġuncertain
Ġund
Ġunder
Ġunderlying
Ġunderstand
Ġunderstanding
Ġunique
Ġunit
Ġunits
Ġunt
Ġuntil
Ġup
Ġupd
Ġupon
Ġur
Ġus
Ġusage
Ġuse
Ġused
Ġuseful
Ġuser
Ġusers
Ġuses
Ġusing
Ġusually
Ġut
Ġv
Ġval
Ġvalid
Ġvaluable
Ġvalue
Ġvalues
Ġvari
Ġvariable
Ġvariables
Ġvariance
Ġvarious
Ġvary
Ġve
Ġvector
Ġveh
Ġver
Ġvers
Ġversion
Ġvery
Ġvide
Ġvideo
Ġview
Ġvill
Ġvis
Ġvisit
Ġvisual
Ġvisualization
Ġvoice
Ġvol
Ġw
Ġwa
Ġwalk
Ġwant
Ġwanted
Ġwar
Ġwarm
Ġwas
Ġwaste
Ġwatch
Ġwater
Ġway
Ġways
Ġwe
Ġweak
Ġweather
Ġweb
Ġwebs
Ġwebsite
Ġweek
Ġweight
Ġwell
Ġwere
Ġwh
Ġwhat
Ġwhe
Ġwhen
Ġwhere
Ġwhether
Ġwhich
Ġwhile
Ġwhis
Ġwho
Ġwhole
Ġwhy
Ġwide
Ġwild
Ġwill
Ġwilling
Ġwind
Ġwith
Ġwithin
Ġwithout
Ġwom
Ġwon
Ġwond
Ġwor
Ġword
Ġwords
Ġwork
Ġworked
Ġworking
Ġworks
Ġworld
Ġworth
Ġwould
Ġwrit
Ġwrite
Ġwriting
Ġwritten
Ġx
Ġy
Ġyear
Ġyears
Ġyet
Ġyield
Ġyou
Ġyoung
Ġyour
Ġyourself
Ġz
Ġzero
Ġ{
Ġ|
Ġ}
ĠÂ
ĠÃ
ĠÎ
Ġâ
ĠâĢ
ĠâĢĵ
ĠâĪ
Ġâī
Ġč
ĠčĊč
ĠĠ
ĠĠĠ
ĠĠĠĠ
ĠĠĠĠĠ
ĠĠĠĠĠĠĠ
ĠĠĠĠĠĠĠĠ
ĠĠĠĠĠĠĠĠĠĠĠĠĠĠĠĠ
ġ
Ģ
ģ
Ĥ
ĥ
Ħ
ħ
Ĩ
ĩ
Ī
ī
Ĭ
ĭ
Į
į
İ
ı
Ĳ
ĳ
Ĵ
ĵ
Ķ
ķ
ĸ
Ĺ
ĺ
Ļ
ļ
Ľ
ľ
Ŀ
ŀ
Ł
ł
Ń
