<|endoftext|>
<|unk|>
<|pad|>
<|mask|>
!</w>
"</w>
#
#</w>
$
$+
$0</w>
$1</w>
$</w>
$\
$\pm
$controller</w>
%
%</w>
&
&</w>
'</w>
(</w>
)</w>
*
**
**</w>
*</w>
+
+</w>
,</w>
-
-1</w>
-</w>
.</w>
/
/</w>
0
000</w>
00</w>
0</w>
1
1/
10
10</w>
12</w>
17</w>
18</w>
19
19</w>
1</w>
2
20
20</w>
2</w>
2x</w>
3
3</w>
4
45</w>
4</w>
5
5</w>
6
6</w>
7
7</w>
8
8</w>
9
9</w>
:</w>
;</w>
<
<</w>
=
=</w>
==</w>
>
></w>
?</w>
@
[</w>
\
\</w>
]</w>
^
^2</w>
^</w>
_
_</w>
__
`
`</w>
``
```
```</w>
```python</w>
a
a</w>
ab
ability</w>
able</w>
ables</w>
abor
about</w>
ac
acc
access</w>
accur
ace</w>
ach
ach</w>
achi
ack
ack</w>
act</w>
acti
action</w>
actions</w>
active</w>
acy</w>
ad
ad</w>
add
add</w>
addi
adding</w>
additionally</w>
address</w>
adv
advan
af
after</w>
ag
aga
age</w>
ages</w>
agra
ai</w>
ail
ak
ak</w>
al
al-
al</w>
ali
ality</w>
all
all</w>
allowing</w>
alls</w>
ally</w>
als</w>
also</w>
alter
alterna
always</w>
am
am</w>
an
an</w>
anal
analy
analysis</w>
ance</w>
anced</w>
and
and</w>
ang
angu
ani
another</w>
ans
ans</w>
answer</w>
ant</w>
anti
ants</w>
any</w>
ap
app
appe
appro
approach</w>
approx
ar
ar</w>
ard
ard</w>
ards</w>
are
are</w>
area</w>
areas</w>
ared</w>
arg
argum
argument</w>
ari
aries</w>
aring</w>
arity</w>
arly</w>
around</w>
arra
array</w>
ars</w>
art</w>
arti
ary</w>
as
as</w>
ase</w>
ased</w>
ases</w>
asi
asing</w>
ask</w>
asp
ass
ass</w>
asser
assi
assu
ast</w>
at
at</w>
ate
ate</w>
ated</w>
ateg
ately</w>
ater</w>
ates</w>
ating</w>
ation</w>
ations</w>
ative</w>
atmosp
atmosphere</w>
ator</w>
atten
atu
atur
ature</w>
au
audi
auth
author</w>
av
avail
average</w>
avo
avoid</w>
ay</w>
ays</w>
b
b</w>
ba
back
back</w>
bal
balance</w>
ball</w>
bar
based</w>
bat</w>
be
be</w>
bec
because</w>
becom
been</w>
bef
before</w>
beha
behavi
behavior</w>
being</w>
beli
ben
benef
benefits</w>
best</w>
bet
better</w>
betwe
between</w>
bi
bit</w>
bl
ble</w>
blo
bo
body</w>
boo
book</w>
both</w>
br
bra
bre
break</w>
bri
bu
buil
build</w>
building</w>
bul
bus
busin
business</w>
but</w>
by</w>
c
c</w>
ca
cal
cal</w>
calcul
calculate</w>
call
cally</w>
can
can</w>
cap
card
care
career</w>
case</w>
cases</w>
cat
cate</w>
categ
categories</w>
cation</w>
cations</w>
cause</w>
ce
ce</w>
ced</w>
cei
cel
cent
cep
cept</w>
cer
certain</w>
ces</w>
cess
cess</w>
ch
ch</w>
cha
chall
challeng
chang
change</w>
changed</w>
changes</w>
char
charac
character</w>
characters</w>
che
chec
ches</w>
chil
ching</w>
cho
choice</w>
choo
choose</w>
ci
cial</w>
cing</w>
cir
cise</w>
city</w>
ck
ck</w>
cl
cla
clarity</w>
class</w>
cle
cle</w>
clear</w>
cli
clim
climb
climbs</w>
clo
clu
co
code</w>
cogni
col
coll
collabor
collec
colum
com
comb
combin
come</w>
comes</w>
comm
commit
common</w>
communi
community</w>
comp
company</w>
comple
complex</w>
comprehen
con
concer
concise</w>
conclu
conclusion</w>
condi
conf
confi
connec
connection</w>
consi
consider
consider</w>
considering</w>
cont
conta
content</w>
context</w>
contin
continu
contr
contribu
contro
controll
controller</w>
controller@
controller@get
conver
convers
conversation</w>
cor
corpor
correct</w>
correla
correlation</w>
correspon
cost</w>
costs</w>
could</w>
coun
count</w>
cour
course</w>
courses</w>
cra
cre
create</w>
creating</w>
cri
cru
crucial</w>
cs</w>
ct</w>
ction</w>
cu
cul
culture</w>
cur
curren
current</w>
cus</w>
cust
custom
customer</w>
customers</w>
d
d</w>
da
dat
data</w>
datas
dataset</w>
date</w>
day</w>
days</w>
de
de</w>
dec
deci
decision</w>
decisions</w>
ded</w>
deep
def</w>
defin
den
den</w>
dence</w>
dent</w>
dep
depend
der
der</w>
deri
derivative</w>
des
des</w>
descri
descrip
desi
design
detail
detec
determin
determine</w>
devel
develo
develop
develop</w>
development</w>
devi
deviation</w>
dge</w>
di
dic
did</w>
dif
differen
difference</w>
different</w>
dig
digital</w>
ding</w>
direc
dis
disc
disco
discus
disp
dist
distin
distribu
distribution</w>
dit</w>
divi
do
do</w>
does</w>
dom</w>
down</w>
dra
dre
dri
dro
ds</w>
du
due</w>
duplic
dur
during</w>
dy
dy</w>
e
e-
e</w>
ear
ec
eci
ect</w>
ects</w>
ed
ed</w>
edit</w>
ef
effec
effective</w>
effici
efficient</w>
ei
el
el</w>
elec
element</w>
elements</w>
eli
els</w>
else</w>
ely</w>
em
em</w>
ement</w>
ements</w>
emo
emotional</w>
emp
emplo
employe
employee</w>
ems</w>
en
en</w>
enc
ence</w>
ences</w>
ency</w>
end
end</w>
ending</w>
ends</w>
ener
energy</w>
eng
engag
engaging</w>
ening</w>
enjo
ensure</w>
ent
ent</w>
ental</w>
entation</w>
ented</w>
enti
ential</w>
ently</w>
ents</w>
environ
environment</w>
ep
ep</w>
equ
equal</w>
equation</w>
er
er</w>
er@
er_
ere</w>
eri
ering</w>
err
error</w>
ers</w>
ery</w>
es
es</w>
esp
ess
ess</w>
essential</w>
est
est</w>
estab
estim
et
et</w>
eting</w>
etri
etric</w>
ets</w>
ety</w>
ev
evalu
eve</w>
even</w>
events</w>
ever
every
every</w>
evi
evidence</w>
ex
exa
example</w>
exc
exi
exp
expec
expected</w>
exper
experi
experience</w>
experiences</w>
expl
explore</w>
exploring</w>
expres
ext</w>
f
f</w>
fa
fac
face</w>
fact
fact</w>
factors</w>
fail
fami
family</w>
fe
fe</w>
featu
fec
fect</w>
feed
feedback</w>
feel
feel</w>
feeling</w>
feet</w>
feren
few</w>
fi
fic
fication</w>
fici
fied</w>
fiel
field</w>
fil
file</w>
fin
finally</w>
find</w>
fir
first</w>
fl
flo
flu
fo
foc
focus</w>
fol
following</w>
foo
foot</w>
for
for</w>
fore
form
form</w>
forma
formation</w>
formed</w>
formul
fra
free</w>
frequ
fri
friend</w>
friends</w>
fro
from</w>
ft</w>
fu
ful
ful</w>
fun
func
function</w>
fur
further</w>
fy</w>
g
g</w>
ga
gain</w>
gate
gate</w>
ge
ge</w>
gen
gener
general</w>
ges</w>
get
get</w>
gg
gge
gh
gh</w>
ght</w>
ghts</w>
gi
gin
give</w>
given</w>
gn
gn</w>
gni
go
go</w>
goals</w>
god</w>
goo
good</w>
got</w>
gr
gra
gre
great</w>
grou
groun
group</w>
groups</w>
grow
growth</w>
gu
gue</w>
gy</w>
h
h</w>
ha
had</w>
hand
hand</w>
happ
har
has</w>
have</w>
having</w>
he
he</w>
head</w>
heal
health</w>
hel
help</w>
helps</w>
hen
her
her</w>
here</w>
hi
high
high</w>
him</w>
his</w>
ho
hom
hou
hours</w>
house</w>
how</w>
however</w>
hu
human</w>
hy
i
i</w>
ic</w>
ice</w>
id
id</w>
ide
idea</w>
ideas</w>
identi
identify</w>
ies</w>
if</w>
ific
il
il</w>
ili
ilities</w>
ility</w>
ill
im
ima
imp
impact</w>
imple
impor
import
import</w>
important</w>
impro
improve</w>
imum</w>
in
in</w>
inclu
include</w>
including</w>
incre
increase</w>
ind
ind</w>
inde
index</w>
indic
indivi
individu
individuals</w>
indu
ine</w>
ined</w>
influ
information</w>
ing
ing</w>
ings</w>
ini
ining</w>
initi
input</w>
ins</w>
insi
insights</w>
inst
instance</w>
inste
instead</w>
int
int</w>
inte
integ
integer</w>
inten
inter
intere
interpre
into</w>
intro
ints</w>
inv
invol
inward
ir
ir</w>
is
is</w>
issu
it
it</w>
ital</w>
ite</w>
ited</w>
items</w>
iter
iting</w>
its</w>
itself</w>
ity</w>
j
j</w>
jav
jec
ject</w>
jo
job
job</w>
jobcard
jour
ju
just</w>
justi
k
k</w>
ke
ke</w>
ked</w>
keep</w>
kes</w>
key</w>
king</w>
kno
know
know</w>
knowle
knowledge</w>
known</w>
ks</w>
l
l</w>
la
lab
land</w>
langu
language</w>
lar</w>
larg
large</w>
last</w>
lastly</w>
lation</w>
le
le</w>
le_
lead
lead</w>
lear
learn</w>
least</w>
led</w>
left</w>
les</w>
less</w>
let</w>
level</w>
li
lic
lications</w>
life</w>
ligh
light</w>
lik
like</w>
likely</w>
lim
lin
line
line</w>
linear</w>
lines</w>
ling</w>
lish</w>
list
list</w>
lit
ll
ll</w>
lo
local</w>
logi
logical</w>
logy</w>
long
long</w>
loo
look</w>
looking</w>
lot</w>
love</w>
low
low</w>
lower</w>
lowing</w>
lows</w>
ls</w>
lst</w>
ly</w>
m
m</w>
ma
made</w>
mail</w>
main
main</w>
make</w>
makes</w>
making</w>
man
man</w>
manag
many</w>
mar
mark
marketing</w>
mary</w>
mat
materi
max
may</w>
mb
me
me</w>
mea
mean
mean</w>
means</w>
medi
media</w>
mem
memb
member</w>
men
ment
ment</w>
mental</w>
ments</w>
mer
mes</w>
metho
method</w>
methods</w>
mi
mic</w>
might</w>
mil
min
mind</w>
ming</w>
mini
minu
mis
mm
mo
mod
mode
model</w>
mon
mor
more</w>
mosp
most</w>
mp
mple</w>
ms</w>
mu
much</w>
mul
multi
multiple</w>
mus
must</w>
my
my</w>
n
n</w>
na
name</w>
natur
natural</w>
nature</w>
navi
ne
nec
necess
necessary</w>
ned</w>
nee
need</w>
needs</w>
ner</w>
ness</w>
new</w>
next</w>
ney</w>
ni
night</w>
ning</w>
no
no</w>
non
non-
nor
norm
not</w>
now</w>
ns</w>
nu
num
numb
number</w>
numbers</w>
o
o</w>
ob
objec
obser
observ
oc
od</w>
of
of</w>
off
off</w>
offer</w>
often</w>
ol
old</w>
om
oms</w>
on
on</w>
ond</w>
one</w>
ong
ong</w>
oni
online</w>
only</w>
ons</w>
oo
ood</w>
op
ope</w>
open</w>
oper
opport
opportunities</w>
options</w>
or
or</w>
ord
order</w>
ore</w>
org
organi
ori
ories</w>
origin
original</w>
oring</w>
ority</w>
ors</w>
ory</w>
oth
other</w>
others</w>
ou
ou</w>
oul
ould</w>
oun
ound
ound</w>
our
our</w>
oura
ours</w>
ous</w>
out
out</w>
outli
outliers</w>
output</w>
over
over</w>
overall</w>
p
p</w>
pa
par
paragra
paragraph</w>
param
part
part</w>
parti
pas
pass
past</w>
pat
path</w>
patter
patterns</w>
pe
peop
people</w>
per
per</w>
perc
perform
performance</w>
peri
pers
person
person</w>
personal</w>
perspec
ph
ph</w>
phr
phrase</w>
phy
physi
physical</w>
pi
pl
pla
plac
place</w>
plan
plan</w>
ple
ple</w>
please</w>
plic
pm
po
point</w>
points</w>
poli
popu
population</w>
por
port
pos
pose</w>
posi
position</w>
positive</w>
possible</w>
post</w>
pot
potential</w>
power</w>
pp
pr
practi
pre
prehen
premi
premises</w>
pres
pri
primary</w>
prime</w>
print</w>
priori
prioriti
pro
prob
probability</w>
proble
problem</w>
process</w>
produ
produc
product</w>
prof
profes
profession
professional</w>
prog
progra
program</w>
project</w>
promo
proper
provi
provide</w>
provided</w>
provides</w>
ps</w>
pt</w>
pu
pub
publi
public</w>
pur
put</w>
pyth
python</w>
q
q</w>
qu
que</w>
ques
question</w>
questions</w>
qui
r
r</w>
ra
radi
rang
range</w>
rate</w>
rather</w>
re
re</w>
reach</w>
read
read</w>
reader</w>
ready</w>
reas
rec
recei
rect</w>
red</w>
redu
ree</w>
ref
refl
reg
regi
regu
rel
rela
relation
relationshi
relationship</w>
relationships</w>
rele
relev
relevant</w>
reli
remember</w>
remo
ren
repres
requ
requi
res
res</w>
resear
research</w>
resour
resp
respon
response</w>
ress</w>
ression</w>
resul
result</w>
results</w>
retur
return</w>
returns</w>
revi
revie
revised</w>
ri
ribu
right</w>
ris
ro
role</w>
roo
room</w>
rou
route</w>
row
row</w>
ru
ry</w>
s
s</w>
sa
said</w>
sal
sales</w>
same</w>
sample</w>
sati
save</w>
say</w>
sc
scal
scen
sci
sco
score</w>
scores</w>
se
se</w>
sear
sec
second</w>
sed</w>
see
see</w>
sel
self
self-
self</w>
sen
sense</w>
sent
sentence</w>
sentences</w>
separ
sequ
ser
series</w>
servi
ses</w>
set
set</w>
setting</w>
sever
several</w>
sh
sh</w>
shap
share</w>
she</w>
shed</w>
shi
ship</w>
sho
shor
should</w>
show</w>
si
sib
sible</w>
sic</w>
side</w>
sign
signific
significant</w>
simil
simp
simple</w>
simpli
sin
since</w>
sing
sing</w>
single</w>
sion
sion</w>
sions</w>
sis</w>
sit
sit</w>
situ
sity</w>
sive</w>
size</w>
sk
skill
skills</w>
sli
sm
small
small</w>
sna
snail</w>
so
so</w>
soci
social</w>
sol
solu
solutions</w>
som
some
some</w>
something</w>
son</w>
sor
sor</w>
sour
source</w>
sources</w>
sp
space</w>
spe
spec
speci
specifi
specific</w>
spi
spor
squ
ss</w>
st
st</w>
sta
stan
stand
stand</w>
standard</w>
standing</w>
stant</w>
star
start</w>
starting</w>
state
statisti
ste
sted</w>
step</w>
steps</w>
ster</w>
sti
still</w>
sting</w>
stly</w>
sto
story</w>
str
stra
strate
stre
stren
streng
stri
string</w>
stru
struc
structure</w>
strugg
sts</w>
stu
stud
student</w>
students</w>
study</w>
sty
su
sub
suc
success
success</w>
such</w>
sugg
sugge
sul
sum</w>
sup
suppor
support</w>
sur
sure</w>
swit
sy
syste
system</w>
t
t-
t</w>
t_
ta
table</w>
tag
tail
tain</w>
take</w>
takes</w>
taking</w>
tal
tal</w>
targ
tas
task</w>
tation</w>
tations</w>
te
te</w>
team</w>
tec
tech
techni
techno
ted</w>
tel
temp
temper
temperature</w>
ten
ten</w>
ter
ter</w>
term</w>
termin
terms</w>
ters</w>
tes</w>
test</w>
text</w>
th
th</w>
than</w>
that</w>
the
the</w>
their</w>
them</w>
then</w>
ther
ther</w>
there</w>
theref
therefore</w>
thes
these</w>
they</w>
thin
thing</w>
think</w>
thinking</w>
this</w>
tho
those</w>
thou
thoughts</w>
three</w>
throu
through</w>
ths</w>
thy</w>
ti
tic</w>
tical</w>
tics</w>
ties</w>
tim
time</w>
times</w>
ting</w>
tion
tion</w>
tional</w>
tionally</w>
tions</w>
tisti
tiv
tive</w>
tively</w>
tives</w>
tivity</w>
tle</w>
tly</w>
to
to</w>
toge
together</w>
tone</w>
too</w>
top
top</w>
total</w>
tou
tr
tra
tran
trans
travel</w>
tre
tri
trip</w>
tru
true</w>
try</w>
ts</w>
tu
tual</w>
tur
ture</w>
tw
two</w>
ty
ty</w>
typ
type</w>
typi
u
u</w>
ue</w>
ul
ultim
ultimately</w>
um
um</w>
un
under
understand</w>
understanding</w>
uni
unique</w>
unities</w>
unity</w>
up
up</w>
ur
ure</w>
us
us</w>
use</w>
used</w>
user</w>
users</w>
uses</w>
using</w>
ust</w>
usti
v
v</w>
val
val</w>
valu
value</w>
values</w>
vari
variable</w>
variables</w>
various</w>
vative</w>
ve
ve</w>
ved</w>
vehi
vehicle
vehicle-
vel
vel</w>
vement</w>
ven
ven</w>
ver
ver</w>
verage</w>
verse</w>
version</w>
very</w>
ves</w>
vey</w>
vi
vie
ving</w>
vir
viron
visu
vo
vol
w
w</w>
wa
wal
want</w>
war
ward
ward</w>
wards</w>
was</w>
wat
water</w>
way</w>
ways</w>
we
we</w>
wee
wei
weigh
wel
well
well-
well</w>
wer</w>
were</w>
wever</w>
wh
what</w>
whe
when</w>
where</w>
whether</w>
whi
which</w>
while</w>
who</w>
why</w>
wi
wil
will</w>
wing</w>
wit
with
with</w>
within</w>
without</w>
wn</w>
wom
wor
words</w>
work
work</w>
working</w>
worl
world</w>
would</w>
wr
writ
write</w>
writing</w>
ws</w>
x
x</w>
x^2</w>
y
y-
y</w>
ye
year</w>
years</w>
yed</w>
yes</w>
ying</w>
you</w>
your
your</w>
yourself</w>
ys</w>
yth
ything</w>
z
z</w>
zation</w>
ze</w>
zed</w>
zer
zes</w>
zing</w>
{</w>
|
|</w>
}</w>
 
 </w>
£
°
±
±</w>
²
²</w>
´
Â
É
×</w>
Ü
ß</w>
ä
é
é</w>
ö
û
ü
ī
ı
́
̄
Δ
Σ
Σ</w>
β
γ</w>
ε</w>
μ</w>
π
π</w>
ρ</w>
σ
σ</w>
φ</w>
ω
ω</w>
‍
–
–</w>
—
‘
’
’</w>
“
”</w>
•</w>
…</w>
←</w>
→</w>
↩</w>
∈</w>
∑
∘</w>
√
∞</w>
∫
∫</w>
∴</w>
≈</w>
≠
≠</w>
≡</w>
≤</w>
≥</w>
⊆</w>
✨</w>
🌌</w>
🌍</w>
🌟</w>
🌱
🌱</w>
🎓
🏫</w>
👩
💻</w>
📊
📊</w>
📚
📚</w>
📝
😄</w>
😊</w>
🙌</w>
🙏</w>
🤔</w>
🦇</w>
